{
  "version": "1.0",
  "truncation": null,
  "padding": null,
  "added_tokens": [
    {
      "id": 0,
      "content": "[PAD]",
      "single_word": false,
      "lstrip": false,
      "rstrip": false,
      "normalized": false,
      "special": true
    },
    {
      "id": 1,
      "content": "[CLS]",
      "single_word": false,
      "lstrip": false,
      "rstrip": false,
      "normalized": false,
      "special": true
    },
    {
      "id": 2,
      "content": "[SEP]",
      "single_word": false,
      "lstrip": false,
      "rstrip": false,
      "normalized": false,
      "special": true
    },
    {
      "id": 3,
      "content": "[MASK]",
      "single_word": false,
      "lstrip": false,
      "rstrip": false,
      "normalized": false,
      "special": true
    },
    {
      "id": 4,
      "content": "[UNK]",
      "single_word": false,
      "lstrip": false,
      "rstrip": false,
      "normalized": false,
      "special": true
    }
  ],
  "normalizer": {
    "type": "Sequence",
    "normalizers": [
      {
        "type": "NFD"
      },
      {
        "type": "Lowercase"
      }
    ]
  },
  "pre_tokenizer": {
    "type": "Whitespace"
  },
  "post_processor": null,
  "decoder": null,
  "model": {
    "type": "WordPiece",
    "unk_token": "[UNK]",
    "continuing_subword_prefix": "##",
    "max_input_chars_per_word": 100,
    "vocab": {
      "[PAD]": 0,
      "[CLS]": 1,
      "[SEP]": 2,
      "[MASK]": 3,
      "[UNK]": 4,
      "!": 5,
      "\"": 6,
      "#": 7,
      "$": 8,
      "%": 9,
      "(": 10,
      ")": 11,
      "+": 12,
      ",": 13,
      "-": 14,
      ".": 15,
      ":": 16,
      ";": 17,
      "<": 18,
      "=": 19,
      ">": 20,
      "@": 21,
      "[": 22,
      "]": 23,
      "_": 24,
      "a": 25,
      "b": 26,
      "c": 27,
      "d": 28,
      "e": 29,
      "f": 30,
      "g": 31,
      "h": 32,
      "i": 33,
      "j": 34,
      "k": 35,
      "l": 36,
      "m": 37,
      "n": 38,
      "o": 39,
      "p": 40,
      "q": 41,
      "r": 42,
      "s": 43,
      "t": 44,
      "u": 45,
      "v": 46,
      "w": 47,
      "x": 48,
      "y": 49,
      "z": 50,
      "{": 51,
      "}": 52,
      "~": 53,
      "##a": 54,
      "##l": 55,
      "##o": 56,
      "##c": 57,
      "##_": 58,
      "##m": 59,
      "##u": 60,
      "##t": 61,
      "##e": 62,
      "##x": 63,
      "##n": 64,
      "##k": 65,
      "##p": 66,
      "##y": 67,
      "##v": 68,
      "##r": 69,
      "##g": 70,
      "##b": 71,
      "##i": 72,
      "##h": 73,
      "##s": 74,
      "##d": 75,
      "##w": 76,
      "##j": 77,
      "##f": 78,
      "##q": 79,
      "##z": 80,
      "##.": 81,
      "##>": 82,
      "##]": 83,
      "##,": 84,
      "##[": 85,
      "##)": 86,
      "##=": 87,
      "##(": 88,
      "##<": 89,
      "##\"": 90,
      "##%": 91,
      "##:": 92,
      "##~": 93,
      "##{": 94,
      "nu": 95,
      "num": 96,
      "],": 97,
      "##tr": 98,
      "![": 99,
      "ptr": 100,
      "%[": 101,
      "db": 102,
      "dbg": 103,
      "##oa": 104,
      "##li": 105,
      "##gn": 106,
      "ali": 107,
      "align": 108,
      "##ba": 109,
      "tba": 110,
      "tbaa": 111,
      "##ou": 112,
      "##nd": 113,
      "##oad": 114,
      "##dx": 115,
      "load": 116,
      "##le": 117,
      "##et": 118,
      "##al": 119,
      "##re": 120,
      "##all": 121,
      "call": 122,
      "##ound": 123,
      "ar": 124,
      "##me": 125,
      "fl": 126,
      "##oat": 127,
      "float": 128,
      "##ay": 129,
      "##dd": 130,
      "##ray": 131,
      "array": 132,
      "##idx": 133,
      "arrayidx": 134,
      "##ul": 135,
      "##ptr": 136,
      "in": 137,
      "add": 138,
      "st": 139,
      "##nt": 140,
      "mul": 141,
      "##ele": 142,
      "idx": 143,
      "##ble": 144,
      "##ex": 145,
      "##ment": 146,
      "##ouble": 147,
      "##element": 148,
      "get": 149,
      "##elementptr": 150,
      "getelementptr": 151,
      "double": 152,
      "##bound": 153,
      "##bounds": 154,
      "inbounds": 155,
      "##om": 156,
      "##ore": 157,
      "store": 158,
      "##pr": 159,
      "<[": 160,
      "##prom": 161,
      "idxprom": 162,
      "to": 163,
      "##ef": 164,
      "])": 165,
      "nound": 166,
      "noundef": 167,
      "##ext": 168,
      "##ct": 169,
      "##id": 170,
      "##or": 171,
      "##mp": 172,
      "##eta": 173,
      "vo": 174,
      "##lv": 175,
      "llv": 176,
      "llvm": 177,
      "##at": 178,
      "ind": 179,
      "void": 180,
      "##on": 181,
      "for": 182,
      "sext": 183,
      "ns": 184,
      "##ata": 185,
      "nsw": 186,
      "##l_": 187,
      "##data": 188,
      "](": 189,
      "meta": 190,
      "metadata": 191,
      "li": 192,
      "##la": 193,
      "##mm": 194,
      "#[": 195,
      "##eti": 196,
      "##feti": 197,
      "lifeti": 198,
      "lifetime": 199,
      "te": 200,
      "##el": 201,
      "lc": 202,
      "lcl_": 203,
      "temp": 204,
      "arg": 205,
      "##_p": 206,
      "##ire": 207,
      "##irect": 208,
      "indirect": 209,
      "##ar": 210,
      "la": 211,
      "co": 212,
      "lcl_v": 213,
      "nuw": 214,
      "lab": 215,
      "label": 216,
      "##ub": 217,
      "]>": 218,
      "##art": 219,
      "##od": 220,
      "]),": 221,
      "str": 222,
      "cond": 223,
      "ex": 224,
      "##t_": 225,
      "start": 226,
      "##uct": 227,
      "de": 228,
      "addr": 229,
      "index": 230,
      "struct": 231,
      "vla": 232,
      "_mm": 233,
      "##si": 234,
      "ext": 235,
      "br": 236,
      "##ds": 237,
      "##<[": 238,
      "bod": 239,
      "body": 240,
      "sub": 241,
      "pre": 242,
      "preds": 243,
      "di": 244,
      "##pu": 245,
      "(<[": 246,
      "[[": 247,
      "##val": 248,
      "()": 249,
      "con": 250,
      "end": 251,
      ">,": 252,
      "##res": 253,
      "##exp": 254,
      "##_i": 255,
      "##sion": 256,
      "dec": 257,
      "##yval": 258,
      "##ression": 259,
      "byval": 260,
      "##),": 261,
      "##lare": 262,
      "diexp": 263,
      "()),": 264,
      "declare": 265,
      "diexpression": 266,
      "fm": 267,
      "##_ps": 268,
      "conv": 269,
      "##er": 270,
      "if": 271,
      "##x_": 272,
      "##um": 273,
      "##mg": 274,
      "##_py": 275,
      "##add": 276,
      "__py": 277,
      "__pyx_": 278,
      "lcl_vd": 279,
      "]:": 280,
      "##_ptr": 281,
      "cmp": 282,
      ">)": 283,
      "##st": 284,
      "##d_": 285,
      "inc": 286,
      "##put_": 287,
      "##non": 288,
      "##amm": 289,
      "##cmp": 290,
      "##ea": 291,
      "##amma": 292,
      "##st_": 293,
      "fmul": 294,
      "##en": 295,
      "##put": 296,
      "icmp": 297,
      "##gamma": 298,
      "##sub": 299,
      "##_img": 300,
      "##int": 301,
      "##ai": 302,
      "del_": 303,
      "##ol": 304,
      "##s_": 305,
      "##put_ptr": 306,
      "##in": 307,
      "##omp": 308,
      "hea": 309,
      "##oc": 310,
      "head_": 311,
      "##pi": 312,
      "##de": 313,
      "##an": 314,
      "##ce": 315,
      "##sum": 316,
      "##fm": 317,
      "##con": 318,
      "##beta": 319,
      "fsub": 320,
      "##omple": 321,
      "lib": 322,
      "##__": 323,
      "##xs": 324,
      "##omplex": 325,
      "##_img_ptr": 326,
      "libxs": 327,
      "libxsmm": 328,
      "##epi": 329,
      "##ail_": 330,
      "th": 331,
      "tail_": 332,
      "__pyx_v": 333,
      "##ool": 334,
      "##load": 335,
      "then": 336,
      "##_non": 337,
      "##_s": 338,
      "##const_": 339,
      "libxsmm_non": 340,
      "##const_int": 341,
      "libxsmm_nonconst_int": 342,
      "##loc": 343,
      "zext": 344,
      "##bool": 345,
      "##ff": 346,
      "tobool": 347,
      "ne": 348,
      "##ot": 349,
      "lcl_vb": 350,
      "##loadu": 351,
      "vi": 352,
      "_loadu": 353,
      "##sq": 354,
      "##],": 355,
      "]],": 356,
      "##set": 357,
      "##ma": 358,
      "##not": 359,
      "##out": 360,
      "lnot": 361,
      "sum": 362,
      "##mean": 363,
      "##lin": 364,
      "re": 365,
      "##lock": 366,
      "##ue": 367,
      "fadd": 368,
      "i__": 369,
      "].": 370,
      "##elem": 371,
      "##_t": 372,
      "##_elem": 373,
      "tr": 374,
      "##block": 375,
      "##se": 376,
      "__pyx_t_": 377,
      "##elin": 378,
      "lcl_vdelin": 379,
      "lcl_vdelinput": 380,
      "_loadu_ps": 381,
      "]>,": 382,
      "##_c": 383,
      "img": 384,
      "sh": 385,
      "##dec": 386,
      "##di": 387,
      "##mul": 388,
      "##complex": 389,
      "##ero": 390,
      "##std": 391,
      ".[": 392,
      "input_ptr": 393,
      "##add_ps": 394,
      "lcl_vsum": 395,
      "]>)": 396,
      "coer": 397,
      "coerce": 398,
      "lcl_vdgamma": 399,
      "lcl_vdbeta": 400,
      "anon": 401,
      "##sk": 402,
      "_c": 403,
      "##pe": 404,
      "bv": 405,
      "true": 406,
      "##ph": 407,
      "##rstd": 408,
      "and": 409,
      "##mul_ps": 410,
      "].[": 411,
      "+[": 412,
      "lcl_vbrstd": 413,
      "##ac": 414,
      "##it": 415,
      "ab": 416,
      "##zero": 417,
      "lcl_vbmean": 418,
      "_mm_": 419,
      "_mul_ps": 420,
      "__pyx_v_": 421,
      "##_epi": 422,
      "lcl_vo": 423,
      "##uff": 424,
      "##_b": 425,
      "arraydec": 426,
      "arraydecay": 427,
      "vk": 428,
      "](<[": 429,
      "##un": 430,
      "##ne": 431,
      "##sl_": 432,
      "complex": 433,
      "nblock": 434,
      "##sfm": 435,
      "nblocksfm": 436,
      "##es": 437,
      "vx": 438,
      "head_t": 439,
      "##ut": 440,
      "div": 441,
      "##hi": 442,
      "iy": 443,
      "fmuladd": 444,
      "ix": 445,
      "isl_": 446,
      "del_gamma": 447,
      "del_beta": 448,
      "##acc": 449,
      "__pyx_v_i": 450,
      "xor": 451,
      "##pw": 452,
      "_set": 453,
      "##_f": 454,
      "##mde": 455,
      "##def": 456,
      "x_elem": 457,
      "eq": 458,
      "si": 459,
      "_add_ps": 460,
      "##_di": 461,
      "out": 462,
      "iz": 463,
      "##lt": 464,
      "##ask": 465,
      "_s": 466,
      "##mde_": 467,
      "##umask": 468,
      "##output": 469,
      "##cdef": 470,
      "(),": 471,
      "vacc": 472,
      "##ge": 473,
      "tail_t": 474,
      "##zero_ps": 475,
      "_setzero_ps": 476,
      "##ec": 477,
      "##off": 478,
      "##eloutput": 479,
      "lcl_vdeloutput": 480,
      "##_si": 481,
      "del_out": 482,
      "del_gamma_img_ptr": 483,
      "del_beta_img_ptr": 484,
      "abcdef": 485,
      "##ast": 486,
      "rem": 487,
      "del_output_ptr": 488,
      "##uf": 489,
      "lcl_vgamma": 490,
      "##gt": 491,
      "##vt": 492,
      "lcl_vsumsq": 493,
      "fp": 494,
      "##fo": 495,
      "##_a": 496,
      "##ode": 497,
      "sumsq": 498,
      "##prod": 499,
      "##_n": 500,
      "al": 501,
      "##ion": 502,
      "##_ma": 503,
      "nfm": 504,
      "##vtepi": 505,
      "nfmblock": 506,
      "_epi": 507,
      "fpext": 508,
      "##_m": 509,
      "##_str": 510,
      "a_elem": 511,
      "##input": 512,
      "lcl_vinput": 513,
      "fal": 514,
      "false": 515,
      "input_": 516,
      "##ze": 517,
      "doublecomplex": 518,
      "##sc": 519,
      "test_": 520,
      "_p": 521,
      "##neg": 522,
      "##hw": 523,
      "##s_a": 524,
      "pr": 525,
      "##hp": 526,
      "beta": 527,
      "bmean": 528,
      "##lice": 529,
      "##pha": 530,
      "fneg": 531,
      "ni": 532,
      "simde_": 533,
      "##em": 534,
      "##unc": 535,
      "el": 536,
      "##_dim": 537,
      "##wp": 538,
      "hi": 539,
      "alpha": 540,
      "exp": 541,
      "##_img_": 542,
      "##slice": 543,
      "##_in": 544,
      "##sh": 545,
      "nimg": 546,
      "##ll": 547,
      "##bj": 548,
      "##ag": 549,
      "##ow": 550,
      "##tx": 551,
      "##mem": 552,
      "expval": 553,
      "##op": 554,
      "sum_img_ptr": 555,
      "sumsq_img_ptr": 556,
      "head_a": 557,
      "tail_a": 558,
      "##hs": 559,
      "else": 560,
      "vt": 561,
      "del_in": 562,
      "_r": 563,
      "vp": 564,
      "incdec": 565,
      "null": 566,
      "##to": 567,
      "##rel": 568,
      "_ps": 569,
      "lcl_rel": 570,
      "output_ptr": 571,
      "lcl_relumask": 572,
      "neg": 573,
      "gr": 574,
      "##ie": 575,
      "sw": 576,
      "stat": 577,
      "_cvtepi": 578,
      "land": 579,
      "dcomplex": 580,
      "ipw": 581,
      "buff": 582,
      "##size": 583,
      "tmp": 584,
      "##ame": 585,
      "shr": 586,
      "ai": 587,
      "gamma": 588,
      "of": 589,
      "##ype": 590,
      "data": 591,
      "##div": 592,
      "py": 593,
      "##_off": 594,
      "##sub_ps": 595,
      "##ape": 596,
      "##ss": 597,
      "_fm": 598,
      "lhs": 599,
      "head_b": 600,
      "tail_b": 601,
      "ac": 602,
      "##vie": 603,
      "##view": 604,
      "_fmadd_ps": 605,
      "##ork": 606,
      "zero": 607,
      "##ides": 608,
      "##vec": 609,
      "##str": 610,
      "_sub_ps": 611,
      "##he": 612,
      "-[": 613,
      "##lo": 614,
      "##obj": 615,
      "##ur": 616,
      "lcl_sum": 617,
      "trunc": 618,
      "imgfm": 619,
      "vn": 620,
      "##eam": 621,
      "_cast": 622,
      "##ark": 623,
      "shl": 624,
      "zeroext": 625,
      "ho": 626,
      "__pyx_mem": 627,
      "##viewslice": 628,
      "##rom": 629,
      "work": 630,
      "##up": 631,
      "vy": 632,
      "##able": 633,
      "##rem": 634,
      "slt": 635,
      "res": 636,
      "##rc": 637,
      "),": 638,
      "vf": 639,
      "test_vec": 640,
      "sp": 641,
      "##mag": 642,
      "scomplex": 643,
      "lcl_vbeta": 644,
      "prod": 645,
      "rel": 646,
      "##p_": 647,
      "__pyx_memviewslice": 648,
      "##ve": 649,
      "##add_ptr": 650,
      "##var": 651,
      "_loadu_si": 652,
      "##_d": 653,
      "##ka": 654,
      "##li_epi": 655,
      "wi": 656,
      "##info": 657,
      "##ld": 658,
      "##lli_epi": 659,
      "simde_v": 660,
      "ifhp": 661,
      "ifwp": 662,
      "##uffer": 663,
      "fcmp": 664,
      "head_sum": 665,
      "_castsi": 666,
      "relumask": 667,
      "brst": 668,
      "bmean_": 669,
      "del_input_ptr": 670,
      "brstd_": 671,
      "##len": 672,
      "##shr": 673,
      "hw": 674,
      "hwloc": 675,
      "srem": 676,
      "##arker": 677,
      "##ent": 678,
      "shape": 679,
      "##_be": 680,
      "tail_sum": 681,
      "_slli_epi": 682,
      "ctx": 683,
      "opw": 684,
      "dbeta": 685,
      "##ng": 686,
      "##cp": 687,
      "cs_a": 688,
      "dgamma": 689,
      "sdiv": 690,
      "##ti": 691,
      "real": 692,
      "do": 693,
      "strides": 694,
      "ma": 695,
      "##am": 696,
      "##_marker": 697,
      "cd": 698,
      "jj": 699,
      "relumask_ptr": 700,
      "##_r": 701,
      "##try": 702,
      "name": 703,
      "imag": 704,
      "##rec": 705,
      "##ch": 706,
      "##pect": 707,
      "##_nhw": 708,
      "chi": 709,
      "##_g": 710,
      "##tem": 711,
      "##buf": 712,
      "##oup": 713,
      "rs_": 714,
      "expect": 715,
      "##offset": 716,
      "##as": 717,
      "brstd": 718,
      "##start": 719,
      "##ount": 720,
      "mat": 721,
      "##est": 722,
      "_i": 723,
      "##ual": 724,
      "##ead": 725,
      "val": 726,
      "rs_a": 727,
      "##_data": 728,
      "group": 729,
      "cf": 730,
      "va": 731,
      "mem": 732,
      "##ey": 733,
      "##array": 734,
      "_mm_c": 735,
      "##cess": 736,
      "or": 737,
      "##ad_": 738,
      "##fi": 739,
      "access": 740,
      "row": 741,
      "brstd_ptr": 742,
      "tb": 743,
      "##act": 744,
      "##_re": 745,
      "dn": 746,
      "##ide": 747,
      "q__": 748,
      "##sic": 749,
      "en": 750,
      "##ale": 751,
      "##_j": 752,
      "##lter": 753,
      "aij": 754,
      "spng": 755,
      "x_i": 756,
      "bmean_ptr": 757,
      "int": 758,
      "wo": 759,
      "##_int": 760,
      "##add_epi": 761,
      "cf_marker": 762,
      "##mask": 763,
      "xi": 764,
      "head_prod": 765,
      "dns_": 766,
      "ng": 767,
      "##al_": 768,
      "##ests": 769,
      "##ing": 770,
      "##ed": 771,
      "##end": 772,
      "##buffer": 773,
      "__pyx_v_s": 774,
      "##ank": 775,
      "##list": 776,
      "type": 777,
      "##tream": 778,
      "sge": 779,
      "@.": 780,
      "##from": 781,
      "head_e": 782,
      "##sqr": 783,
      "tail_prod": 784,
      "buf": 785,
      "gamma_": 786,
      "bit": 787,
      "set": 788,
      "##ate": 789,
      "##simde_": 790,
      "test_simde_": 791,
      "_stream": 792,
      "##aph": 793,
      "dim": 794,
      "ofhp": 795,
      "ofwp": 796,
      "comp": 797,
      "##_u": 798,
      "##sqrtx": 799,
      "fi": 800,
      "##eq": 801,
      "##_po": 802,
      "##s_t": 803,
      "##and": 804,
      "##ree": 805,
      "vxk": 806,
      "vxi": 807,
      "##toptr": 808,
      "inttoptr": 809,
      "##og": 810,
      "rk": 811,
      "bb": 812,
      "##min": 813,
      "##_aff": 814,
      "bi": 815,
      "rdata": 816,
      "##head": 817,
      "##entry": 818,
      "##gth": 819,
      "##multi": 820,
      "node": 821,
      "##_v": 822,
      "##tract": 823,
      "##onent": 824,
      "a_i": 825,
      "##ect": 826,
      "##nhw": 827,
      "##yp": 828,
      "lcl_vrec": 829,
      "lcl_vnhw": 830,
      "##sq_ptr": 831,
      "lcl_sum_ptr": 832,
      "lcl_sumsq_ptr": 833,
      "lcl_vrec_nhw": 834,
      "vl": 835,
      "##ace": 836,
      "component": 837,
      "##rai": 838,
      "##store": 839,
      "##tri": 840,
      "stats": 841,
      "##hed_": 842,
      "bl": 843,
      "vc": 844,
      "##er_": 845,
      "isl_sc": 846,
      "len": 847,
      "lor": 848,
      "##gin": 849,
      "iph": 850,
      "input_add_ptr": 851,
      "##_info": 852,
      "value": 853,
      "##ts": 854,
      "cs_": 855,
      "jx": 856,
      "ngx_": 857,
      "_mask": 858,
      "vout": 859,
      "sc": 860,
      "vidx": 861,
      "po": 862,
      "tvar": 863,
      "##map": 864,
      "##_tests": 865,
      "rd_": 866,
      "a_dim": 867,
      "bf": 868,
      "##list_": 869,
      "##_to": 870,
      "##_col": 871,
      "isize": 872,
      "lshr": 873,
      "omp": 874,
      "tail_e": 875,
      "##_offd": 876,
      "_mm_cvtepi": 877,
      "vr": 878,
      "vb": 879,
      "##rai_epi": 880,
      "isl_sched_": 881,
      "ptrto": 882,
      "ptrtoint": 883,
      "__pyx_v_str": 884,
      "del_input_": 885,
      "##_begin": 886,
      "##rdata": 887,
      "vec": 888,
      "##lib": 889,
      "vs": 890,
      "##te": 891,
      "##cast": 892,
      "##fka": 893,
      "##kafka": 894,
      "##are": 895,
      "##_obj": 896,
      "rd_kafka": 897,
      "##ter": 898,
      "_mm_add_epi": 899,
      "##_fi": 900,
      "buff_a": 901,
      "ci": 902,
      "##et_": 903,
      "##_diag": 904,
      "vprod": 905,
      "##l_epi": 906,
      "__pyx_v_j": 907,
      "##union": 908,
      "del_gamma_ptr": 909,
      "del_beta_ptr": 910,
      "dbeta_img_": 911,
      "dgamma_img_": 912,
      "tbmean": 913,
      "##storeu": 914,
      "_h": 915,
      "op": 916,
      "##par": 917,
      "##ad_from": 918,
      "##ypre": 919,
      "##ad_from_str": 920,
      "##ndex": 921,
      "##a_": 922,
      "##ult": 923,
      "del_input_add_ptr": 924,
      "sgt": 925,
      "##_k": 926,
      "##_point": 927,
      "vzero": 928,
      "##k_": 929,
      "##scale": 930,
      "math": 931,
      "num_col": 932,
      "##_mask": 933,
      "##_map_": 934,
      "##kl": 935,
      "##uple": 936,
      "bitcast": 937,
      "z__": 938,
      "##_double": 939,
      "num_cols": 940,
      "oph": 941,
      "##value": 942,
      "gamma_ptr": 943,
      "##_offd_": 944,
      "p_n": 945,
      "##etlib": 946,
      "##_free": 947,
      "p_netlib": 948,
      "ld": 949,
      "src": 950,
      "cur": 951,
      "##_ahead": 952,
      "ch": 953,
      "##ern": 954,
      "_mm_loadu": 955,
      "_round": 956,
      "dns_rdata": 957,
      "_x": 958,
      "##_set": 959,
      "_mm_load": 960,
      "##offsets": 961,
      "rank": 962,
      "##ash": 963,
      "##mat": 964,
      "##hind": 965,
      "##_behind": 966,
      "##trin": 967,
      "##s_mm": 968,
      "libxsmm_in": 969,
      "##_bf": 970,
      "##ne_bf": 971,
      "##hij": 972,
      "_srai_epi": 973,
      "##sics_mm": 974,
      "_roundne_bf": 975,
      "##trinsics_mm": 976,
      "libxsmm_intrinsics_mm": 977,
      "key": 978,
      "ome": 979,
      "##ga": 980,
      "##_par": 981,
      "##sign": 982,
      "__pyx_v_ind": 983,
      "##cpy": 984,
      "##olv": 985,
      "##_sum": 986,
      "##_count": 987,
      "simde_mm": 988,
      "omega": 989,
      "##_read_from_str": 990,
      "##_w": 991,
      "##air": 992,
      "##opy": 993,
      "##_intern": 994,
      "ele": 995,
      "suboffsets": 996,
      "memcpy": 997,
      "##klm": 998,
      "##stat": 999,
      "up": 1000,
      "##lon": 1001,
      "##us_": 1002,
      "un": 1003,
      "##_len": 1004,
      "_mm_mul_ps": 1005,
      "..": 1006,
      "##_start": 1007,
      "##.)": 1008,
      "...)": 1009,
      "_y": 1010,
      "send": 1011,
      "##ition": 1012,
      "##ner": 1013,
      "##_doublecomplex": 1014,
      "p_netlib_doublecomplex": 1015,
      "##of": 1016,
      "##ange": 1017,
      "##_struct": 1018,
      "simde_vld": 1019,
      "__": 1020,
      "##_array": 1021,
      "##row": 1022,
      "lcl_fm": 1023,
      "##_table": 1024,
      "##ack": 1025,
      "__pyx_v_m": 1026,
      "##_map": 1027,
      "graph": 1028,
      "##klmn": 1029,
      "lcl_fm_sum": 1030,
      "_storeu": 1031,
      "##ov": 1032,
      "##print": 1033,
      "##_pw": 1034,
      "output_": 1035,
      "##ab": 1036,
      "##_q": 1037,
      "##_de": 1038,
      "##rst": 1039,
      "##ias": 1040,
      "extract": 1041,
      "child": 1042,
      "_mm_loadl_epi": 1043,
      "##man": 1044,
      "##_item": 1045,
      "##olog": 1046,
      "##ology": 1047,
      "##code": 1048,
      "##kg": 1049,
      "col": 1050,
      "##_internal_": 1051,
      "vh": 1052,
      "##ance": 1053,
      "##line": 1054,
      "map": 1055,
      "##_h": 1056,
      "shuf": 1057,
      "shufp": 1058,
      "##leve": 1059,
      "##ctor": 1060,
      "##ghij": 1061,
      "##alloc": 1062,
      "##mpz": 1063,
      "##pic": 1064,
      "send_map_": 1065,
      "new": 1066,
      "##_offd_j": 1067,
      "d__": 1068,
      "iv": 1069,
      "##no": 1070,
      "##pace": 1071,
      "flag": 1072,
      "##_code": 1073,
      "output": 1074,
      "rs_b": 1075,
      "vscale": 1076,
      "##ms": 1077,
      "##ite": 1078,
      "_mm_add_ps": 1079,
      "##_max": 1080,
      "##olvable": 1081,
      "c__": 1082,
      "ts": 1083,
      "##_con": 1084,
      "##mo": 1085,
      "##kal": 1086,
      "##py": 1087,
      "##erm": 1088,
      "sum_img_": 1089,
      "sumsq_img_": 1090,
      "beta_": 1091,
      "_ri": 1092,
      "hwloc_obj": 1093,
      "dbeta_": 1094,
      "dgamma_": 1095,
      "rkt": 1096,
      "rh": 1097,
      "##ps_": 1098,
      "##gr": 1099,
      "##stream": 1100,
      "##object": 1101,
      "pp": 1102,
      "},": 1103,
      "##ym": 1104,
      "input": 1105,
      "##artition": 1106,
      "off": 1107,
      "##ser": 1108,
      "_mm_s": 1109,
      "aik": 1110,
      "_stream_ps": 1111,
      "_stream_si": 1112,
      "com": 1113,
      "count": 1114,
      "ed": 1115,
      "ogt": 1116,
      "rea": 1117,
      "##ap": 1118,
      "##basic": 1119,
      "##max": 1120,
      "__pyx_v_ds": 1121,
      "_mask_": 1122,
      "##kalman": 1123,
      "##ort": 1124,
      "##_type": 1125,
      "mup": 1126,
      "##_diag_j": 1127,
      "##kr": 1128,
      "##addr": 1129,
      "##_sp": 1130,
      "##output_": 1131,
      "##_offset": 1132,
      "##_filter": 1133,
      "m_ahead": 1134,
      "obj": 1135,
      "vz": 1136,
      "##ln": 1137,
      "##th": 1138,
      "##odel": 1139,
      "##ain": 1140,
      "result": 1141,
      "__pyx_v_stride": 1142,
      "ob": 1143,
      "##_ch": 1144,
      "__pyx_v_src": 1145,
      "flags": 1146,
      "fdiv": 1147,
      "vmin": 1148,
      "##ction": 1149,
      "##lo_epi": 1150,
      "##tries": 1151,
      "##ps_si": 1152,
      "hypre": 1153,
      "##node": 1154,
      "##base": 1155,
      "shuff": 1156,
      "##_from": 1157,
      "##levector": 1158,
      "shufflevector": 1159,
      "_hi": 1160,
      "_lo": 1161,
      "doutput_": 1162,
      "next": 1163,
      "##_multi": 1164,
      "##get": 1165,
      "##ic": 1166,
      "##ren": 1167,
      "inner": 1168,
      "##ord": 1169,
      "##ell": 1170,
      "##itof": 1171,
      "isl_multi": 1172,
      "beta_ptr": 1173,
      "__pyx_v_mslice": 1174,
      "##itofp": 1175,
      "##_buffer": 1176,
      "isl_basic": 1177,
      "mupa": 1178,
      "##fn": 1179,
      "##attr": 1180,
      "##espace": 1181,
      "dive": 1182,
      "simde_vadd": 1183,
      "##blend": 1184,
      "##_id": 1185,
      "##hape": 1186,
      "##alf": 1187,
      "__pyx_buf": 1188,
      "##its": 1189,
      "__mpz": 1190,
      "__mpz_struct": 1191,
      "nb": 1192,
      "ve": 1193,
      "##ase": 1194,
      "##dim": 1195,
      "isl_union": 1196,
      "stats_t": 1197,
      "##struct": 1198,
      "vhalf": 1199,
      "_load": 1200,
      "ij": 1201,
      "n_elem": 1202,
      "vsqrtx": 1203,
      "##_prom": 1204,
      "##ks": 1205,
      "##ver": 1206,
      "sh_prom": 1207,
      "##gtno": 1208,
      "beta_i": 1209,
      "acgtno": 1210,
      "##hed": 1211,
      "##equal": 1212,
      "ngx_stream": 1213,
      "_mm_loadu_si": 1214,
      "rho": 1215,
      "##graph": 1216,
      "var": 1217,
      "##po": 1218,
      "##ctx": 1219,
      "##add_f": 1220,
      "input_f": 1221,
      "length": 1222,
      "ob_item": 1223,
      "##_mul": 1224,
      "##zero_point": 1225,
      "##temp": 1226,
      "edge": 1227,
      "##was": 1228,
      "##les": 1229,
      "##stance": 1230,
      "##uff_code": 1231,
      "cnt": 1232,
      "y_i": 1233,
      "##name": 1234,
      "##f_": 1235,
      "##ation": 1236,
      "##_partition": 1237,
      "_storeu_ps": 1238,
      "offset": 1239,
      "cr": 1240,
      "y_elem": 1241,
      "##pacc": 1242,
      "##src": 1243,
      "info": 1244,
      "vfpacc": 1245,
      "entries": 1246,
      "pos": 1247,
      "tvar_ptr": 1248,
      "##_pw_aff": 1249,
      "_mask_blend": 1250,
      "_mask_blend_ps": 1251,
      "_t": 1252,
      "ashr": 1253,
      "er": 1254,
      "##_list": 1255,
      "print": 1256,
      "##_topic": 1257,
      "rktpar": 1258,
      "lo": 1259,
      "pool": 1260,
      "qu": 1261,
      "tuple": 1262,
      "##dj": 1263,
      "__pyx": 1264,
      "buff_": 1265,
      "py_buffer": 1266,
      "rd_kafka_topic": 1267,
      "huff_code": 1268,
      "##_l": 1269,
      "##vel": 1270,
      "##_get": 1271,
      "test_simde_v": 1272,
      "fiel": 1273,
      "vminus_": 1274,
      "block": 1275,
      "ukr": 1276,
      "##ments": 1277,
      "##_is_": 1278,
      "__pyx_v_shape": 1279,
      "__pyx_v_dst_": 1280,
      "acgtno_count": 1281,
      "##wasm": 1282,
      "rd_kafka_topic_partition": 1283,
      "##rent": 1284,
      "##ock": 1285,
      "__pyx_v_k": 1286,
      "##eck": 1287,
      "test_simde_mm": 1288,
      "##ghijklmn": 1289,
      "min": 1290,
      "##ref": 1291,
      "##ator": 1292,
      "##_ij": 1293,
      "__pyx_obj": 1294,
      "##mullo_epi": 1295,
      "entry": 1296,
      "ranks": 1297,
      "__pyx_py": 1298,
      "__pyx_obj_": 1299,
      "##ig": 1300,
      "##ers": 1301,
      "loop": 1302,
      "##x_i": 1303,
      "incx": 1304,
      "reds": 1305,
      "equal": 1306,
      "##filter": 1307,
      "##list_t": 1308,
      "bset": 1309,
      "##r_": 1310,
      "##rite": 1311,
      "##one": 1312,
      "##_buf": 1313,
      "big": 1314,
      "bij": 1315,
      "math_mul": 1316,
      "comm": 1317,
      "math_muladd_f": 1318,
      "gt_": 1319,
      "##_entry": 1320,
      "##model": 1321,
      "cont": 1322,
      "recp": 1323,
      "##_cur": 1324,
      "##_diminfo": 1325,
      "diminfo": 1326,
      "__pyx_buf_diminfo": 1327,
      "recp_nhw": 1328,
      "cla": 1329,
      "hash": 1330,
      "item": 1331,
      "sym": 1332,
      "##ob": 1333,
      "##s_s": 1334,
      "##moot": 1335,
      "_ptr": 1336,
      "##type": 1337,
      "##nput_": 1338,
      "##rsqrtx": 1339,
      "dinput_": 1340,
      "statespace": 1341,
      "spng_sp": 1342,
      "statsmodel": 1343,
      "cs_c": 1344,
      "tsa_": 1345,
      "vhalfrsqrtx": 1346,
      "statespace_": 1347,
      "statsmodels_": 1348,
      "cell": 1349,
      "pair": 1350,
      "text": 1351,
      "##col": 1352,
      "top": 1353,
      "##dst": 1354,
      "##opq": 1355,
      "##printf": 1356,
      "##ksz": 1357,
      "vminus_ln": 1358,
      "id": 1359,
      "##uv": 1360,
      "##ory": 1361,
      "##_co": 1362,
      "isl_set": 1363,
      "state": 1364,
      "##_multi_aff": 1365,
      "func": 1366,
      "range": 1367,
      "##_text": 1368,
      "share": 1369,
      "work_dim": 1370,
      "cf_marker_offd": 1371,
      "topology": 1372,
      "shared": 1373,
      "par": 1374,
      "sle": 1375,
      "##cale": 1376,
      "##iv": 1377,
      "stride": 1378,
      "reg": 1379,
      "_mm_mullo_epi": 1380,
      "##log": 1381,
      "##buf_": 1382,
      "lda": 1383,
      "cram": 1384,
      "err": 1385,
      "##key": 1386,
      "nsz": 1387,
      "##oder": 1388,
      "##oly": 1389,
      "##_info_t": 1390,
      "bli": 1391,
      "kk": 1392,
      "vmag": 1393,
      "##bs": 1394,
      "code": 1395,
      "##ans": 1396,
      "__pyx_v_p": 1397,
      "##dis": 1398,
      "_mm_cast": 1399,
      "##_va": 1400,
      "isl_sched_graph": 1401,
      "##_parc": 1402,
      "redset_": 1403,
      "big_k": 1404,
      "vmagic": 1405,
      "bd": 1406,
      "px": 1407,
      "s_offd_j": 1408,
      "sitofp": 1409,
      "tsq": 1410,
      "vd": 1411,
      "##_hi": 1412,
      "##bmean": 1413,
      "inser": 1414,
      "##seq": 1415,
      "isl_pw": 1416,
      "##ssoc": 1417,
      "tbrstd": 1418,
      "tbmeansq": 1419,
      "##rstuv": 1420,
      "##opqrstuv": 1421,
      "tsqbmean": 1422,
      "afn": 1423,
      "le": 1424,
      "rc": 1425,
      "##sr": 1426,
      "arcp": 1427,
      "##silon": 1428,
      "contract": 1429,
      "##local": 1430,
      "##oto": 1431,
      "##_bias": 1432,
      "##endog": 1433,
      "__pyx_v_strides": 1434,
      "reassoc": 1435,
      "redset_base": 1436,
      "##au": 1437,
      "##o_va": 1438,
      "##_ot": 1439,
      "##son": 1440,
      "##lear": 1441,
      "__pyx_local": 1442,
      "##ins": 1443,
      "##hwloc": 1444,
      "##_dt": 1445,
      "##_row": 1446,
      "spng_text": 1447,
      "##buffernd": 1448,
      "isl_sched_node": 1449,
      "##_internal_hwloc": 1450,
      "quo_va": 1451,
      "__pyx_pybuffernd": 1452,
      "##buf_nd": 1453,
      "##dis_internal_hwloc": 1454,
      "__pyx_localbuf_nd": 1455,
      "quo_vadis_internal_hwloc": 1456,
      "aren": 1457,
      "s_diag_j": 1458,
      "##elm": 1459,
      "##enc": 1460,
      "ab_dim": 1461,
      "##_min": 1462,
      "ic": 1463,
      "s_s": 1464,
      "##amp": 1465,
      "##im": 1466,
      "##her": 1467,
      "##starts": 1468,
      "rdataset": 1469,
      "##long": 1470,
      "##ghijklmnopqrstuv": 1471,
      "a_begin": 1472,
      "b_elem": 1473,
      "fn": 1474,
      "m_behind": 1475,
      "vexp": 1476,
      "##nn": 1477,
      "##sin": 1478,
      "##ine": 1479,
      "rs_c": 1480,
      "##edge": 1481,
      "voutput_": 1482,
      "dns_rdataset": 1483,
      "elems": 1484,
      "lcl_fm_sumsq": 1485,
      "##elmts": 1486,
      "vsign": 1487,
      "##_pr": 1488,
      "##tt": 1489,
      "##ft": 1490,
      "simde_vshr": 1491,
      "dims": 1492,
      "filter": 1493,
      "fr": 1494,
      "nc": 1495,
      "solvable": 1496,
      "##_z": 1497,
      "##ure": 1498,
      "##il": 1499,
      "##ij": 1500,
      "##ommp": 1501,
      "##_pkg": 1502,
      "struct_ot": 1503,
      "incb": 1504,
      "##decoder": 1505,
      "##iti": 1506,
      "##unk": 1507,
      "sign": 1508,
      "vecext": 1509,
      "_hypre": 1510,
      "elements": 1511,
      "upsilon": 1512,
      "send_map_elmts": 1513,
      "##srcommp": 1514,
      "comm_pkg": 1515,
      "##_parcsrcommp": 1516,
      "vmagic_bias": 1517,
      "solvables": 1518,
      "struct_otf": 1519,
      "_hypre_parcsrcommp": 1520,
      "_hypre_parcsrcommpkg": 1521,
      "aw": 1522,
      "bam": 1523,
      "gp": 1524,
      "##_union": 1525,
      "##ty": 1526,
      "##tuple": 1527,
      "##ken": 1528,
      "##rank": 1529,
      "##_size": 1530,
      "max_": 1531,
      "clas": 1532,
      "insert": 1533,
      "_u": 1534,
      "dst_": 1535,
      "nd": 1536,
      "pc": 1537,
      "se": 1538,
      "ven": 1539,
      "##_lo": 1540,
      "##mark": 1541,
      "##pth": 1542,
      "##bit": 1543,
      "##zma": 1544,
      "##add_": 1545,
      "##pec": 1546,
      "##ache": 1547,
      "__pyx_v_data": 1548,
      "__pyx_v_sub": 1549,
      "##_bin": 1550,
      "simde": 1551,
      "unur": 1552,
      "##ample": 1553,
      "gp_offset": 1554,
      "iw": 1555,
      "##ox": 1556,
      "##ml": 1557,
      "##ule": 1558,
      "invar": 1559,
      "col_": 1560,
      "##_inc": 1561,
      "##_gen": 1562,
      "##_write": 1563,
      "##_current": 1564,
      "ap": 1565,
      "kv": 1566,
      "r_": 1567,
      "read": 1568,
      "umap": 1569,
      "zeta": 1570,
      "##ust": 1571,
      "##ind": 1572,
      "##alg": 1573,
      "inca": 1574,
      "##_sh": 1575,
      "datap": 1576,
      "send_map_starts": 1577,
      "level": 1578,
      "##_union_pw_aff": 1579,
      "##ax": 1580,
      "##co": 1581,
      "##tmp": 1582,
      "##que": 1583,
      "##s_re": 1584,
      "##_copy": 1585,
      "__pyx_v_idx": 1586,
      "isl_mat": 1587,
      "##_node": 1588,
      "##length": 1589,
      "param": 1590,
      "aws_": 1591,
      "_kalman": 1592,
      "b_begin": 1593,
      "dst": 1594,
      "gt": 1595,
      "ji": 1596,
      "lp": 1597,
      "pw": 1598,
      "p_marker": 1599,
      "##ad": 1600,
      "##tes": 1601,
      "lcl_gamma": 1602,
      "lcl_beta": 1603,
      "##memattr": 1604,
      "pybuffer": 1605,
      "##_info_s": 1606,
      "##_desc": 1607,
      "rcbuffer": 1608,
      "lcl_gamma_ptr": 1609,
      "lcl_beta_ptr": 1610,
      "fprintf": 1611,
      "ii": 1612,
      "##_list_": 1613,
      "##war": 1614,
      "##err": 1615,
      "##d_t": 1616,
      "##_fp": 1617,
      "##lte": 1618,
      "pytuple": 1619,
      "##fig": 1620,
      "isl_multi_union_pw_aff": 1621,
      "##moother": 1622,
      "quo_vadis_internal_hwloc_internal_": 1623,
      "s_solvable": 1624,
      "%.": 1625,
      "aff": 1626,
      "iter": 1627,
      "ker": 1628,
      "oge": 1629,
      "perm": 1630,
      "r__": 1631,
      "rhs": 1632,
      "xg": 1633,
      "##lh": 1634,
      "##lt_": 1635,
      "##ep": 1636,
      "##ial": 1637,
      "##ssize": 1638,
      "__pyx_temp": 1639,
      "pylong": 1640,
      "vecins": 1641,
      "extractvalue": 1642,
      "##_fromssize": 1643,
      "_mm_castps_si": 1644,
      "##sinfo": 1645,
      "quo_vadis_internal_hwloc_internal_memattr": 1646,
      "pylong_fromssize": 1647,
      "pylong_fromssize_t": 1648,
      "_to": 1649,
      "ht": 1650,
      "pma": 1651,
      "z_filter": 1652,
      "##copy": 1653,
      "##_ctx": 1654,
      "##mit": 1655,
      "##arget": 1656,
      "##hild": 1657,
      "sig": 1658,
      "size": 1659,
      "##trix": 1660,
      "_mm_loadu_ps": 1661,
      "##max_ps": 1662,
      "z_filter_info_t": 1663,
      "apr": 1664,
      "nhw": 1665,
      "psi": 1666,
      "tag": 1667,
      "une": 1668,
      "uge": 1669,
      "vmark": 1670,
      "##uint": 1671,
      "##pack": 1672,
      "##fl": 1673,
      "##q_n": 1674,
      "arraysize": 1675,
      "conj": 1676,
      "##erf": 1677,
      "_mm_un": 1678,
      "__pyx_v_item": 1679,
      "simde_wasm": 1680,
      "##opology": 1681,
      "_castps_si": 1682,
      "bits": 1683,
      "vbias": 1684,
      "vscaled": 1685,
      "__pyx_v_src_data": 1686,
      "__pyx_v_dst_data": 1687,
      "vexpw": 1688,
      "__pyx_v_suboffset": 1689,
      "_mm_unpack": 1690,
      "at": 1691,
      "mp": 1692,
      "vnon": 1693,
      "##us": 1694,
      "##ort_": 1695,
      "copy": 1696,
      "##puset": 1697,
      "head": 1698,
      "region": 1699,
      "vnonsign": 1700,
      "fptr": 1701,
      "n_behind": 1702,
      "x_start": 1703,
      "##_exp": 1704,
      "##resid": 1705,
      "##s_data": 1706,
      "##s_rank": 1707,
      "##_tag": 1708,
      "trans": 1709,
      "simde_uint": 1710,
      "##addr_t": 1711,
      "cntx_": 1712,
      "##ward": 1713,
      "fptrunc": 1714,
      "clear": 1715,
      "malloc": 1716,
      "vresid": 1717,
      "##_x": 1718,
      "##ytes": 1719,
      "_mm_and": 1720,
      "##estr": 1721,
      "##_distance": 1722,
      "matvar": 1723,
      "vabs": 1724,
      "vrsqrtx": 1725,
      "##values": 1726,
      "##stats": 1727,
      "upma": 1728,
      "pair_t": 1729,
      "classinfo": 1730,
      "insertelement": 1731,
      "vresidual": 1732,
      "classinfo_": 1733,
      "_f": 1734,
      "_ll": 1735,
      "_lh": 1736,
      "ct": 1737,
      "from": 1738,
      "is_": 1739,
      "mn": 1740,
      "##ali": 1741,
      "##as_": 1742,
      "##bl": 1743,
      "arf": 1744,
      "##ong": 1745,
      "tempx": 1746,
      "##arg": 1747,
      "diag": 1748,
      "rec": 1749,
      "##locks_data": 1750,
      "##ueue": 1751,
      "_py": 1752,
      "x_index": 1753,
      "##arent": 1754,
      "_hl": 1755,
      "_hh": 1756,
      "##_length": 1757,
      "vlog": 1758,
      "##nection": 1759,
      "ciph": 1760,
      "isl_basic_map": 1761,
      "rd_kafka_topic_partition_s": 1762,
      "signext": 1763,
      "cast": 1764,
      "gv": 1765,
      "sample": 1766,
      "wt": 1767,
      "xh": 1768,
      "##ldst": 1769,
      "##cache": 1770,
      "##v_": 1771,
      "##glist_t": 1772,
      "##htt": 1773,
      "##ssl_": 1774,
      "vone": 1775,
      "##max_": 1776,
      "##_max_": 1777,
      "pyarray": 1778,
      "vnan": 1779,
      "match": 1780,
      "isize_t": 1781,
      "simde_mm_": 1782,
      "vari": 1783,
      "##s_reglist_t": 1784,
      "hts_reglist_t": 1785,
      "##ldstate": 1786,
      "k_": 1787,
      "kd": 1788,
      "lst": 1789,
      "mc": 1790,
      "ok": 1791,
      "##br": 1792,
      "##_pair": 1793,
      "##ces": 1794,
      "##_topology": 1795,
      "isl_map": 1796,
      "##urve": 1797,
      "##_is_equal": 1798,
      "simde_int": 1799,
      "##estruct": 1800,
      "_max_ps": 1801,
      "olt": 1802,
      "ref": 1803,
      "s_p": 1804,
      "t_r": 1805,
      "tau": 1806,
      "xnn": 1807,
      "##c_": 1808,
      "##_element": 1809,
      "##_alg": 1810,
      "##ms_": 1811,
      "##rge": 1812,
      "stream": 1813,
      "incai": 1814,
      "__pyx_v_dim": 1815,
      "##_name": 1816,
      "##scal": 1817,
      "jj_begin": 1818,
      "sched": 1819,
      "opt": 1820,
      "##k_ov": 1821,
      "math_max_": 1822,
      "ldb": 1823,
      "##us_k_ov": 1824,
      "##_table_exp": 1825,
      "read_": 1826,
      "simde_vaddq": 1827,
      "n_elem_max": 1828,
      "minus_k_ov": 1829,
      "##igh": 1830,
      "spng_splt_": 1831,
      "simde_vshrq_n": 1832,
      "_to_m": 1833,
      "k_endog": 1834,
      "s_pool": 1835,
      "xnn_table_exp": 1836,
      "incaij": 1837,
      "jj_begin_row": 1838,
      "minus_k_over_": 1839,
      "spng_splt_entry": 1840,
      "it": 1841,
      "mea": 1842,
      "##age": 1843,
      "##ca": 1844,
      "##ting": 1845,
      "##ri": 1846,
      "##hash": 1847,
      "##word": 1848,
      "##piv": 1849,
      "##here": 1850,
      "extractelement": 1851,
      "frag": 1852,
      "seg": 1853,
      "pytupleobject": 1854,
      "vnanmask": 1855,
      "simde_mm_loadu": 1856,
      "nr": 1857,
      "##emp": 1858,
      "##ves": 1859,
      "alist": 1860,
      "##our": 1861,
      "##lele": 1862,
      "##omain": 1863,
      "token": 1864,
      "##l_s": 1865,
      "##_pi": 1866,
      "prev": 1867,
      "##_tmp": 1868,
      "##_func": 1869,
      "allele": 1870,
      "max": 1871,
      "isl_sched_edge": 1872,
      "##_check": 1873,
      "isl_basic_set": 1874,
      "field_": 1875,
      "acgtno_count_": 1876,
      "dns_rdataset_current": 1877,
      "##itiator": 1878,
      "##_incref": 1879,
      "##_list_s": 1880,
      "fragment": 1881,
      "gen": 1882,
      "ip": 1883,
      "one": 1884,
      "uc": 1885,
      "##meti": 1886,
      "##poly": 1887,
      "##sure": 1888,
      "tot": 1889,
      "dist": 1890,
      "libmeti": 1891,
      "##_nonestruct": 1892,
      "_mm_storeu": 1893,
      "py_incref": 1894,
      "##p_pr": 1895,
      "##info_": 1896,
      "union": 1897,
      "varid": 1898,
      "##less_": 1899,
      "_py_nonestruct": 1900,
      "libmetis_": 1901,
      "_from": 1902,
      "cl": 1903,
      "not": 1904,
      "ret_": 1905,
      "table": 1906,
      "vl_": 1907,
      "where": 1908,
      "xa": 1909,
      "##ll_epi": 1910,
      "##_prod": 1911,
      "##_mem": 1912,
      "##_decoder": 1913,
      "##yz": 1914,
      "##read": 1915,
      "list": 1916,
      "##elt": 1917,
      "head_x_i": 1918,
      "tail_x_i": 1919,
      "##_bi": 1920,
      "head_tmp": 1921,
      "##_stride": 1922,
      "##hpd": 1923,
      "##opo": 1924,
      "buff_c": 1925,
      "head_suma": 1926,
      "head_sumb": 1927,
      "relumask_": 1928,
      "hwloc_info_s": 1929,
      "vadj": 1930,
      "##header": 1931,
      "##ared_t": 1932,
      "##kalmanfilter": 1933,
      "ngx_stream_con": 1934,
      "##pos": 1935,
      "printf": 1936,
      "__pyx_v_kfilter": 1937,
      "__pyx_v_perm": 1938,
      "##ustment": 1939,
      "##_shared_t": 1940,
      "##quest": 1941,
      "_kalman_filter": 1942,
      "vadjustment": 1943,
      "b_dim": 1944,
      "cut": 1945,
      "free": 1946,
      "ps": 1947,
      "##ok": 1948,
      "##_tr": 1949,
      "##tests": 1950,
      "##ee": 1951,
      "##ive": 1952,
      "##ison": 1953,
      "diff": 1954,
      "##_is": 1955,
      "##_index": 1956,
      "##_ss": 1957,
      "##_cla": 1958,
      "_mm_mo": 1959,
      "prob": 1960,
      "priv": 1961,
      "##ve_ss": 1962,
      "hwloc_topology": 1963,
      "poison": 1964,
      "acgtno_count_t": 1965,
      "measure": 1966,
      "ucp_pr": 1967,
      "_from_m": 1968,
      "_mm_move_ss": 1969,
      "bt_": 1970,
      "comple": 1971,
      "fun": 1972,
      "lzma": 1973,
      "##com": 1974,
      "##tl": 1975,
      "##num": 1976,
      "##ize": 1977,
      "##large": 1978,
      "##_scale": 1979,
      "alpha_i": 1980,
      "vtk": 1981,
      "buffer": 1982,
      "childstate": 1983,
      "curves": 1984,
      "_storeu_si": 1985,
      "_mm_srai_epi": 1986,
      "permil": 1987,
      "x_starti": 1988,
      "lstopo": 1989,
      "##less_zero_point": 1990,
      "a_": 1991,
      "im": 1992,
      "long": 1993,
      "t_t": 1994,
      "t_shared_t": 1995,
      "##est_": 1996,
      "##ps": 1997,
      "##bine": 1998,
      "string": 1999,
      "depth": 2000,
      "incy": 2001,
      "##ension": 2002,
      "##inc": 2003,
      "##erobj": 2004,
      "__pyx_v_nd": 2005,
      "__pyx_v_line": 2006,
      "##eck_": 2007,
      "##fiel": 2008,
      "x_ii": 2009,
      "##_key": 2010,
      "math_min": 2011,
      "apr_table": 2012,
      "simde_wasm_v": 2013,
      "measure_array": 2014,
      "ucp_proto": 2015,
      "bin": 2016,
      "emit": 2017,
      "gre": 2018,
      "kh": 2019,
      "parent": 2020,
      "t_dim": 2021,
      "zone": 2022,
      "##aff": 2023,
      "##os": 2024,
      "##cy": 2025,
      "##r_ptr": 2026,
      "##elect": 2027,
      "##mped": 2028,
      "##atch": 2029,
      "##_plte": 2030,
      "##arr": 2031,
      "##result": 2032,
      "__pyx_slice": 2033,
      "__pyx_v_tmp": 2034,
      "##se_": 2035,
      "##_cov": 2036,
      "##iterobj": 2037,
      "isl_aff": 2038,
      "vacccdef": 2039,
      "tmpy": 2040,
      "hwloc__": 2041,
      "spng_plte": 2042,
      "test_simde_wasm": 2043,
      "##ect_tag": 2044,
      "_maskz": 2045,
      "##_object": 2046,
      "##ased": 2047,
      "spng_splt": 2048,
      "isl_pw_multi_aff": 2049,
      "arena": 2050,
      "__pyx_v_itemsize": 2051,
      "attr": 2052,
      "transl": 2053,
      "_fore": 2054,
      "pyarrayiterobj": 2055,
      "##_product": 2056,
      "##_biased": 2057,
      "##_clamped": 2058,
      "##_scaled": 2059,
      "__pyx_v_ndim": 2060,
      "##field_": 2061,
      "__pyx_slice__": 2062,
      "pyarrayiterobject_tag": 2063,
      "_m": 2064,
      "dt": 2065,
      "mb": 2066,
      "ra": 2067,
      "uitofp": 2068,
      "##cle": 2069,
      "##tion": 2070,
      "##ed_": 2071,
      "##nom": 2072,
      "##yb": 2073,
      "##lit": 2074,
      "##out_": 2075,
      "extent": 2076,
      "##x_mm": 2077,
      "##stal": 2078,
      "##s_id": 2079,
      "##map_": 2080,
      "##_bits": 2081,
      "workset": 2082,
      "rkbuf": 2083,
      "##_pointer": 2084,
      "##mattr": 2085,
      "##_param": 2086,
      "##_pw_multi_aff": 2087,
      "y_ii": 2088,
      "iwork": 2089,
      "_mm_and_si": 2090,
      "vabsx": 2091,
      "simde_mm_loadu_epi": 2092,
      "##ource": 2093,
      "_z": 2094,
      "__v": 2095,
      "_hpd": 2096,
      "a_j": 2097,
      "b_i": 2098,
      "ctr": 2099,
      "dm": 2100,
      "fd": 2101,
      "gi": 2102,
      "t_c": 2103,
      "tij": 2104,
      "vma": 2105,
      "##oy": 2106,
      "##_value": 2107,
      "##nj": 2108,
      "##bu": 2109,
      "##hat": 2110,
      "##lain": 2111,
      "args": 2112,
      "desc": 2113,
      "##vals": 2114,
      "__pyx_struct": 2115,
      "__pyx_type": 2116,
      "##state": 2117,
      "##_target": 2118,
      "##_cnj": 2119,
      "input_add_": 2120,
      "tail_suma": 2121,
      "tail_sumb": 2122,
      "##actor": 2123,
      "spng_ctx": 2124,
      "##parse": 2125,
      "_load_ps": 2126,
      "arena_": 2127,
      "levels": 2128,
      "math_max_f": 2129,
      "##combine": 2130,
      "_hpdf_": 2131,
      "vmant": 2132,
      "__pyx_structfield_": 2133,
      "__pyx_typeinfo": 2134,
      "##_cnjg": 2135,
      "_fn": 2136,
      "is": 2137,
      "lh": 2138,
      "loutput": 2139,
      "lock": 2140,
      "l_is": 2141,
      "nf": 2142,
      "ver": 2143,
      "zi": 2144,
      "##madd_ps": 2145,
      "##vs": 2146,
      "##ges": 2147,
      "##sl": 2148,
      "##sg": 2149,
      "##rep": 2150,
      "##orm": 2151,
      "##lag": 2152,
      "coord": 2153,
      "##_sc": 2154,
      "##_seq": 2155,
      "##matrix": 2156,
      "__pyx_v_ax": 2157,
      "##_rank": 2158,
      "first": 2159,
      "scal": 2160,
      "##_hea": 2161,
      "##_entry_t": 2162,
      "unur_gen": 2163,
      "aws_htt": 2164,
      "##empty": 2165,
      "apr_table_entry_t": 2166,
      "arena_stat": 2167,
      "_fnmadd_ps": 2168,
      "lhs_rank": 2169,
      "(%": 2170,
      "_store": 2171,
      "fits": 2172,
      "gw": 2173,
      "js": 2174,
      "nl": 2175,
      "ncon": 2176,
      "n_k": 2177,
      "n_ahead": 2178,
      "nab": 2179,
      "ph": 2180,
      "slice": 2181,
      "s_q": 2182,
      "t_element": 2183,
      "ult": 2184,
      "##ck": 2185,
      "##_sub": 2186,
      "##_def": 2187,
      "##ml_": 2188,
      "##ush": 2189,
      "##tg": 2190,
      "##tab": 2191,
      "##eigh": 2192,
      "##blin": 2193,
      "##date": 2194,
      "##ft_": 2195,
      "##tro": 2196,
      "##put_f": 2197,
      "##inal": 2198,
      "vxa": 2199,
      "vxb": 2200,
      "##hi_epi": 2201,
      "del_output_f": 2202,
      "##gts": 2203,
      "##_in_g": 2204,
      "##stride": 2205,
      "##stroy": 2206,
      "vaarg": 2207,
      "##ad_n": 2208,
      "##ing_s": 2209,
      "blksz": 2210,
      "##a_list_t": 2211,
      "char": 2212,
      "##app": 2213,
      "isl_union_map": 2214,
      "_load_mask": 2215,
      "test_simde_vsr": 2216,
      "rd_kafka_topic_partition_list_s": 2217,
      "context": 2218,
      "##_bin_tests": 2219,
      "gp_offset_p": 2220,
      "sig_alg": 2221,
      "##float": 2222,
      "_mm_unpackhi_epi": 2223,
      "mn_behind": 2224,
      "variance": 2225,
      "##cast_": 2226,
      "emitter": 2227,
      "__va_list_t": 2228,
      "_store_mask": 2229,
      "fits_in_g": 2230,
      "s_queue": 2231,
      "##bling": 2232,
      "test_simde_vsrad_n": 2233,
      "__va_list_tag": 2234,
      "fits_in_gp": 2235,
      "_gt": 2236,
      "cm": 2237,
      "def": 2238,
      "hts": 2239,
      "##_line": 2240,
      "##ns": 2241,
      "##ial_": 2242,
      "inv": 2243,
      "##ids": 2244,
      "##etitem": 2245,
      "##_plain": 2246,
      "##inter": 2247,
      "##s_epi": 2248,
      "##s_large": 2249,
      "##_sll_epi": 2250,
      "##_madd_epi": 2251,
      "proto": 2252,
      "##memb": 2253,
      "##string": 2254,
      "##time": 2255,
      "memset": 2256,
      "##andle": 2257,
      "##_ver": 2258,
      "rd_kafka_buf": 2259,
      "fields": 2260,
      "##_hitro": 2261,
      "##error": 2262,
      "##polynom": 2263,
      "function": 2264,
      "as_": 2265,
      "bs_id": 2266,
      "cd_": 2267,
      "gout_": 2268,
      "jrow": 2269,
      "pa": 2270,
      "sm": 2271,
      "uri": 2272,
      "whi": 2273,
      "##el_": 2274,
      "##pli": 2275,
      "##rinfo": 2276,
      "##gg": 2277,
      "##qu": 2278,
      "##ctx_": 2279,
      "fortr": 2280,
      "##odu": 2281,
      "__pyx_buffer": 2282,
      "__pyx_code": 2283,
      "##diff": 2284,
      "##unk_": 2285,
      "__pyx_v_it": 2286,
      "tail_tmp": 2287,
      "##scal_": 2288,
      "##_gr": 2289,
      "rs_w": 2290,
      "memb": 2291,
      "enc": 2292,
      "values": 2293,
      "cs_w": 2294,
      "vrnd": 2295,
      "##abs": 2296,
      "##_qpolynom": 2297,
      "##objectcache": 2298,
      "_mm_sr": 2299,
      "##_char": 2300,
      "##f_addr_t": 2301,
      "blocks": 2302,
      "itemsize": 2303,
      "unur_hitro": 2304,
      "reader": 2305,
      "##cond": 2306,
      "read_data": 2307,
      "_mm_storeu_ps": 2308,
      "ngx_stream_conf_addr_t": 2309,
      "spng_plte_entry": 2310,
      "translation": 2311,
      "gout_empty": 2312,
      "while": 2313,
      "__pyx_codeobjectcache": 2314,
      "unur_hitro_gen": 2315,
      "__pyx_codeobjectcacheentry": 2316,
      "_and": 2317,
      "_ctx_": 2318,
      "av": 2319,
      "ace": 2320,
      "a_offd_j": 2321,
      "a_diag_j": 2322,
      "adj": 2323,
      "agg": 2324,
      "es": 2325,
      "fabs": 2326,
      "kx": 2327,
      "my": 2328,
      "part": 2329,
      "phi": 2330,
      "sock": 2331,
      "ti": 2332,
      "xe": 2333,
      "xb": 2334,
      "xf": 2335,
      "xklmn": 2336,
      "xghij": 2337,
      "z_ij": 2338,
      "##lksz": 2339,
      "##_un": 2340,
      "##use": 2341,
      "##km": 2342,
      "##gm": 2343,
      "##ikm": 2344,
      "##der": 2345,
      "##read_from_str": 2346,
      "##ult_": 2347,
      "##ates": 2348,
      "##atadef": 2349,
      "##last": 2350,
      "##arc": 2351,
      "##s_m": 2352,
      "##_child": 2353,
      "abs": 2354,
      "##_blksz": 2355,
      "##_npy": 2356,
      "_poly": 2357,
      "splt": 2358,
      "_index": 2359,
      "##_read_": 2360,
      "##andatadef": 2361,
      "##trix_": 2362,
      "##_config": 2363,
      "hypre_par": 2364,
      "isl_union_pw_multi_aff": 2365,
      "##hedule": 2366,
      "huff_code_table": 2367,
      "##pecial_": 2368,
      "xgace": 2369,
      "xgikm": 2370,
      "malloc_hea": 2371,
      "recv": 2372,
      "cls": 2373,
      "##yber_": 2374,
      "_hpdf_arc": 2375,
      "n_kyber_": 2376,
      "rd_kafka_buf_write": 2377,
      "fortrandatadef": 2378,
      "_ctx_rec": 2379,
      "]]": 2380,
      "_b": 2381,
      "_add_epi": 2382,
      "_k_": 2383,
      "__npy": 2384,
      "aa": 2385,
      "bj": 2386,
      "bar": 2387,
      "cs": 2388,
      "fcol": 2389,
      "mask": 2390,
      "oeq": 2391,
      "seq": 2392,
      "ssl": 2393,
      "ugt": 2394,
      "##ave": 2395,
      "##lu": 2396,
      "##_st": 2397,
      "##_en": 2398,
      "##_ac": 2399,
      "##uite": 2400,
      "##xyz": 2401,
      "##nce": 2402,
      "##rt": 2403,
      "##bo": 2404,
      "##wxyz": 2405,
      "##f_ps": 2406,
      "##lift_": 2407,
      "##leave": 2408,
      "##orit": 2409,
      "##lab": 2410,
      "##_pd": 2411,
      "##ary": 2412,
      "strlen": 2413,
      "##rest": 2414,
      "##erand": 2415,
      "inc_v": 2416,
      "##st_matrix": 2417,
      "##ined": 2418,
      "##inates": 2419,
      "##fmt_": 2420,
      "__pyx_v_c": 2421,
      "##_clocks_data": 2422,
      "##itch": 2423,
      "__pyx_v_offset": 2424,
      "_scale": 2425,
      "##_init": 2426,
      "switch": 2427,
      "buff_m": 2428,
      "__pyx_memory": 2429,
      "product": 2430,
      "##_data_t": 2431,
      "memviewslice": 2432,
      "##file": 2433,
      "rowsum": 2434,
      "rowtmp": 2435,
      "inter": 2436,
      "dims_m": 2437,
      "##_pos_t": 2438,
      "bind": 2439,
      "current": 2440,
      "##_deinter": 2441,
      "__pyx_v_dst": 2442,
      "dinput_add_": 2443,
      "text_list": 2444,
      "isl_pw_qpolynom": 2445,
      "__pyx_pybuffernd_a": 2446,
      "__pyx_temp_pointer": 2447,
      "vnonsignw": 2448,
      "##max_less_zero_point": 2449,
      "##_pair_pos_t": 2450,
      "##scalv": 2451,
      "vnanmaskw": 2452,
      "bt_i": 2453,
      "__pyx_v_tmpslice": 2454,
      "_forecast_": 2455,
      "##x_mm_deinter": 2456,
      "##actorize": 2457,
      "vmantw": 2458,
      "nfmg": 2459,
      "coordinates": 2460,
      "variance_": 2461,
      "hts_pair_pos_t": 2462,
      "cd_values": 2463,
      "vrndacc": 2464,
      "]]],": 2465,
      "_k_endog": 2466,
      "__npy_i": 2467,
      "##lift_int": 2468,
      "_scalef_ps": 2469,
      "__pyx_memoryview": 2470,
      "_forecast_error": 2471,
      "##x_mm_deinterleave": 2472,
      "_d": 2473,
      "box": 2474,
      "dpw": 2475,
      "nm": 2476,
      "plist": 2477,
      "r_cnjg": 2478,
      "ser": 2479,
      "urem": 2480,
      "yi": 2481,
      "##late": 2482,
      "##_y": 2483,
      "##_loc": 2484,
      "##_block": 2485,
      "##_addr": 2486,
      "##gt_": 2487,
      "##double": 2488,
      "##led": 2489,
      "##mer": 2490,
      "topic": 2491,
      "##sig": 2492,
      "##ds_epi": 2493,
      "##erator": 2494,
      "vi_max": 2495,
      "repo": 2496,
      "##ses": 2497,
      "##distance": 2498,
      "##lts": 2499,
      "##_strides": 2500,
      "##_string": 2501,
      "grid": 2502,
      "##ssds_epi": 2503,
      "space": 2504,
      "dot_": 2505,
      "##edtl": 2506,
      "rkm": 2507,
      "scan": 2508,
      "vbi": 2509,
      "##_mapentry": 2510,
      "contin": 2511,
      "bli_func": 2512,
      "##ency": 2513,
      "vsign_mask": 2514,
      "struct_otf_mapentry": 2515,
      "p_marker_offd": 2516,
      "isl_multi_union_pw_aff_read_from_str": 2517,
      "regions_t": 2518,
      "probe": 2519,
      "vtkparse": 2520,
      "math_min_f": 2521,
      "mbedtl": 2522,
      "scaloc": 2523,
      "barcode": 2524,
      "dpwssds_epi": 2525,
      "_decoder": 2526,
      "ad": 2527,
      "cp": 2528,
      "cpu": 2529,
      "fsrc": 2530,
      "fdst": 2531,
      "factorize": 2532,
      "ig": 2533,
      "ipiv": 2534,
      "imattr": 2535,
      "ole": 2536,
      "t_i": 2537,
      "xl": 2538,
      "x_": 2539,
      "##oi": 2540,
      "##ev": 2541,
      "##ncy": 2542,
      "##yte": 2543,
      "##ix": 2544,
      "##wt": 2545,
      "##zone": 2546,
      "##tree": 2547,
      "##nder": 2548,
      "initiator": 2549,
      "instal": 2550,
      "##ortr": 2551,
      "argu": 2552,
      "argv": 2553,
      "##_pre": 2554,
      "##_per": 2555,
      "last_": 2556,
      "lang": 2557,
      "coder": 2558,
      "##sing": 2559,
      "config": 2560,
      "##ster": 2561,
      "##ail": 2562,
      "suml": 2563,
      "##item": 2564,
      "_mm_min": 2565,
      "##utex": 2566,
      "outptr": 2567,
      "abcdefp": 2568,
      "##check": 2569,
      "##_reg": 2570,
      "xindex": 2571,
      "dns_zone": 2572,
      "blue": 2573,
      "##teral": 2574,
      "chunk_": 2575,
      "rho_c": 2576,
      "##_lzma": 2577,
      "##r_block": 2578,
      "hash_desc": 2579,
      "quo_vadis_internal_hwloc_internal_memattr_s": 2580,
      "matvar_t": 2581,
      "ciph_desc": 2582,
      "private": 2583,
      "lzma_lzma": 2584,
      "lstopo_": 2585,
      "green": 2586,
      "isl_pw_qpolynomial": 2587,
      "vbias_": 2588,
      "installed": 2589,
      "a_data": 2590,
      "cb": 2591,
      "csum": 2592,
      "marker": 2593,
      "rr": 2594,
      "sam": 2595,
      "ule": 2596,
      "##cla": 2597,
      "##curve": 2598,
      "##_var": 2599,
      "##tn": 2600,
      "##index": 2601,
      "##dr": 2602,
      "##dup": 2603,
      "##wgt": 2604,
      "##oup_": 2605,
      "##ndi": 2606,
      "##eters": 2607,
      "##ull": 2608,
      "nsec": 2609,
      "##odes": 2610,
      "##ainder": 2611,
      "##inv": 2612,
      "##_cpuset": 2613,
      "##_bit": 2614,
      "vxghijklmnopqrstuv": 2615,
      "##memory": 2616,
      "##er_id": 2617,
      "isize_data_t": 2618,
      "##param": 2619,
      "##rows": 2620,
      "##aps": 2621,
      "##version": 2622,
      "cram_f": 2623,
      "bam_line": 2624,
      "stream_read_": 2625,
      "total_": 2626,
      "server": 2627,
      "continue": 2628,
      "_rep": 2629,
      "amg": 2630,
      "core": 2631,
      "c_i": 2632,
      "cms": 2633,
      "clocks_data": 2634,
      "ep": 2635,
      "elts": 2636,
      "fe": 2637,
      "io": 2638,
      "isc": 2639,
      "lef": 2640,
      "l_q": 2641,
      "m_a": 2642,
      "pid": 2643,
      "q_s": 2644,
      "ret": 2645,
      "sq": 2646,
      "u_s": 2647,
      "uset": 2648,
      "xace": 2649,
      "##amg": 2650,
      "##ault": 2651,
      "##lr": 2652,
      "##ci": 2653,
      "##cnt": 2654,
      "##count": 2655,
      "##tf": 2656,
      "##nb": 2657,
      "##ycle": 2658,
      "##v_t": 2659,
      "##if": 2660,
      "##jln": 2661,
      "numex": 2662,
      "##read_": 2663,
      "]()": 2664,
      "line": 2665,
      "##resh": 2666,
      "##resent": 2667,
      "sumr": 2668,
      "##_complex": 2669,
      "##_bytes": 2670,
      "##utoff": 2671,
      "isl_print": 2672,
      "##_dist_matrix": 2673,
      "##vtxs": 2674,
      "alg": 2675,
      "##_master": 2676,
      "vyghijklmnopqrstuv": 2677,
      "##_domain": 2678,
      "matrix_": 2679,
      "_ir": 2680,
      "##rai_pi": 2681,
      "cij": 2682,
      "operand": 2683,
      "##acks_epi": 2684,
      "__pyx_v_model": 2685,
      "rktp": 2686,
      "_mm_slli_epi": 2687,
      "_mm_srai_pi": 2688,
      "##_split": 2689,
      "simde_vadd_s": 2690,
      "simde_vadd_u": 2691,
      "##ases": 2692,
      "rktparlist": 2693,
      "##vels": 2694,
      "test_simde_vcombine": 2695,
      "isl_set_free": 2696,
      "isl_set_read_from_str": 2697,
      "bdf": 2698,
      "__pyx_pybuffernd_dist_matrix": 2699,
      "voutput_max_less_zero_point": 2700,
      "parameters": 2701,
      "pwq": 2702,
      "_mm_unpacklo_epi": 2703,
      "mpa": 2704,
      "regions": 2705,
      "cntx_l": 2706,
      "xhjln": 2707,
      "simde_vaddq_s": 2708,
      "simde_vaddq_u": 2709,
      "simde_vshrq_n_s": 2710,
      "simde_vshrq_n_u": 2711,
      "isl_aff_split": 2712,
      "t_cmemb": 2713,
      "nabor": 2714,
      "invd": 2715,
      "_mm_srli": 2716,
      "translation_t": 2717,
      "hypre_paramg": 2718,
      "intervals": 2719,
      "nmalloc": 2720,
      "cpus": 2721,
      "lstopo_output": 2722,
      "_represent": 2723,
      "amg_data": 2724,
      "l_qname": 2725,
      "u_sj": 2726,
      "xaceg": 2727,
      "isl_printer_": 2728,
      "matrix_row": 2729,
      "t_cmemb_t": 2730,
      "hypre_paramgdata": 2731,
      "_representation": 2732,
      "__g": 2733,
      "bu": 2734,
      "bmap": 2735,
      "cpuset": 2736,
      "gts": 2737,
      "ioffset": 2738,
      "ln": 2739,
      "oth": 2740,
      "ossl_": 2741,
      "plte": 2742,
      "sk": 2743,
      "sr": 2744,
      "target": 2745,
      "wm": 2746,
      "write": 2747,
      "x_t": 2748,
      "x_data": 2749,
      "yy": 2750,
      "##ched": 2751,
      "##xml_": 2752,
      "##range": 2753,
      "##get_": 2754,
      "##bind": 2755,
      "##is": 2756,
      "##suite": 2757,
      "##zz": 2758,
      "##oar": 2759,
      "##ets": 2760,
      "##request": 2761,
      "##dataset": 2762,
      "literal": 2763,
      "##arts": 2764,
      "##sts": 2765,
      "##step": 2766,
      "##_set_": 2767,
      "##otoc": 2768,
      "##_comp": 2769,
      "##_cutoff": 2770,
      "__pyx_v_size": 2771,
      "##_matrix": 2772,
      "test_suite": 2773,
      "##p_id": 2774,
      "##char": 2775,
      "orig": 2776,
      "##_ref": 2777,
      "##_pos": 2778,
      "scale": 2779,
      "cig": 2780,
      "##_diag_data": 2781,
      "open": 2782,
      "##_offd_data": 2783,
      "p_netlib_z": 2784,
      "check": 2785,
      "##status": 2786,
      "next_": 2787,
      "##cols": 2788,
      "voutput_min": 2789,
      "sigma": 2790,
      "field_a": 2791,
      "field_b": 2792,
      "##okup": 2793,
      "##_trans": 2794,
      "hwloc__xml_": 2795,
      "##_plain_is_equal": 2796,
      "probe_trans": 2797,
      "argument": 2798,
      "cram_fd": 2799,
      "##_mastercon": 2800,
      "__gmpz": 2801,
      "other": 2802,
      "test_suite_tests": 2803,
      "_eq": 2804,
      "astart": 2805,
      "ahat": 2806,
      "c_dim": 2807,
      "ckl": 2808,
      "ff": 2809,
      "ibase": 2810,
      "loc": 2811,
      "o_p": 2812,
      "pline": 2813,
      "partition": 2814,
      "qual": 2815,
      "sop": 2816,
      "udiv": 2817,
      "##a_c": 2818,
      "##loat": 2819,
      "##_e": 2820,
      "##_enc": 2821,
      "##norm": 2822,
      "##rit": 2823,
      "##bits": 2824,
      "##ib": 2825,
      "##it_": 2826,
      "##~{": 2827,
      "##trol": 2828,
      "##ndef": 2829,
      "##left": 2830,
      "int_": 2831,
      "##ntext": 2832,
      "##_packs_epi": 2833,
      "_mm_packs_epi": 2834,
      "distance": 2835,
      "conf": 2836,
      "##export_": 2837,
      "##old": 2838,
      "##s_c": 2839,
      "##mand": 2840,
      "suma": 2841,
      "sumb": 2842,
      "sum_img": 2843,
      "##_tw": 2844,
      "_chi": 2845,
      "__pyx_v_di": 2846,
      "isl_vec": 2847,
      "isl_seq": 2848,
      "sibling": 2849,
      "##_div": 2850,
      "sumsq_img": 2851,
      "_psi": 2852,
      "##short": 2853,
      "##own": 2854,
      "buff_b": 2855,
      "##ables": 2856,
      "##ents": 2857,
      "isl_schedule": 2858,
      "chunk": 2859,
      "##match": 2860,
      "key_check": 2861,
      "##line_t": 2862,
      "##objects": 2863,
      "__pyx_buffmt_": 2864,
      "cntx": 2865,
      "infos": 2866,
      "test_simde_vml": 2867,
      "gt_str": 2868,
      "pairs": 2869,
      "cram_sub": 2870,
      "voutput_zero_point": 2871,
      "struct_otf_mastercon": 2872,
      "_undef": 2873,
      "##_nodeset": 2874,
      "##copyv": 2875,
      "tags_": 2876,
      "copy_start": 2877,
      "cntx_bl": 2878,
      "jj_begin_row_offd": 2879,
      "libmetis__i": 2880,
      "complete": 2881,
      "arena_stats_large": 2882,
      "##plier": 2883,
      "##used": 2884,
      "##orith": 2885,
      "stream_read_bit": 2886,
      "total_memory": 2887,
      "left": 2888,
      "isl_printer_print": 2889,
      "##oarse": 2890,
      "##otocol": 2891,
      "hwloc__xml_export_": 2892,
      "astarti": 2893,
      "o_pline_t": 2894,
      "sop_j": 2895,
      "sibling_rank": 2896,
      "key_checksum": 2897,
      "cram_sub_matrix": 2898,
      "struct_otf_mastercontrol": 2899,
      "cntx_blksz": 2900,
      "arena_stats_large_s": 2901,
      "_j": 2902,
      "_val": 2903,
      "mr": 2904,
      "modu": 2905,
      "ndim": 2906,
      "nvtxs": 2907,
      "ptn": 2908,
      "q_u": 2909,
      "rb": 2910,
      "rnd": 2911,
      "sgn": 2912,
      "sin": 2913,
      "sort": 2914,
      "vmax": 2915,
      "wv": 2916,
      "##ant": 2917,
      "##madd_epi": 2918,
      "##uzz": 2919,
      "##getitem": 2920,
      "##ber": 2921,
      "##blast": 2922,
      "##ild": 2923,
      "##dn": 2924,
      "##dinal": 2925,
      "##tra": 2926,
      "##limit": 2927,
      "##extension": 2928,
      "lam": 2929,
      "cov": 2930,
      "deg": 2931,
      "##sioi": 2932,
      "##dset": 2933,
      "connection": 2934,
      "__pyx_getitem": 2935,
      "##ocs": 2936,
      "##otal": 2937,
      "##set_item": 2938,
      "##seg": 2939,
      "##_call": 2940,
      "_cms_": 2941,
      "##peg": 2942,
      "_mm_madd_epi": 2943,
      "isl_map_": 2944,
      "isl_sioi": 2945,
      "##_and": 2946,
      "##_meta": 2947,
      "grib": 2948,
      "dataptr": 2949,
      "pylist_": 2950,
      "##strides": 2951,
      "workshort": 2952,
      "spar": 2953,
      "valpha": 2954,
      "ordinal": 2955,
      "ngx_con": 2956,
      "rd_kafka_config": 2957,
      "##_diag_i": 2958,
      "chain": 2959,
      "##math": 2960,
      "graph_array": 2961,
      "cols": 2962,
      "rhs_rank": 2963,
      "##_chunk": 2964,
      "hypre_f": 2965,
      "isl_union_map_": 2966,
      "##_prop": 2967,
      "##itiali": 2968,
      "##_lookup": 2969,
      "quo_vadis_internal_hwloc_internal_memattr_target": 2970,
      "ctrl": 2971,
      "default": 2972,
      "avx": 2973,
      "adjncy": 2974,
      "##ined_ps": 2975,
      "##curve_struct": 2976,
      "pwqp": 2977,
      "_undefined_ps": 2978,
      "rndscale": 2979,
      "__pyx_getitemint": 2980,
      "_cms_curve_struct": 2981,
      "isl_sioimath": 2982,
      "pylist_set_item": 2983,
      "quo_vadis_internal_hwloc_internal_memattr_target_s": 2984,
      ">],": 2985,
      "_ob": 2986,
      "a_r": 2987,
      "b_r": 2988,
      "cdata": 2989,
      "c_r": 2990,
      "cs_t": 2991,
      "kms_": 2992,
      "mes": 2993,
      "noa": 2994,
      "nout": 2995,
      "n_w": 2996,
      "nrequest": 2997,
      "pan": 2998,
      "pack": 2999,
      "rmap": 3000,
      "s_j": 3001,
      "select": 3002,
      "t_l": 3003,
      "uscal": 3004,
      "vum": 3005,
      "xj": 3006,
      "xml": 3007,
      "##cm": 3008,
      "##_res": 3009,
      "##_add": 3010,
      "##_zero": 3011,
      "##_rec": 3012,
      "##ner_": 3013,
      "##nown": 3014,
      "##ryp": 3015,
      "##bol": 3016,
      "##bytes": 3017,
      "##ile": 3018,
      "##smoother": 3019,
      "##wap": 3020,
      "##jo": 3021,
      "##free": 3022,
      "##qual": 3023,
      "##lip": 3024,
      "##lias": 3025,
      "##barc": 3026,
      "##back": 3027,
      "##bance": 3028,
      "##alar": 3029,
      "##meas": 3030,
      "##ults": 3031,
      "st_i": 3032,
      "step": 3033,
      "##ment_di": 3034,
      "##ath": 3035,
      "##onec": 3036,
      "##elf": 3037,
      "temp_int": 3038,
      "##odule": 3039,
      "exr_": 3040,
      "addrs": 3041,
      "extension": 3042,
      "subnode": 3043,
      "##_iter": 3044,
      "##x_hi": 3045,
      "##x_lo": 3046,
      "##stur": 3047,
      "head_row": 3048,
      "##fma": 3049,
      "libxsmm_d": 3050,
      "##ail_i": 3051,
      "tail_row": 3052,
      "##_select": 3053,
      "red": 3054,
      "##dity": 3055,
      "##skey": 3056,
      "__pyx_v_n": 3057,
      "__pyx_v_length": 3058,
      "__pyx_v_ipiv": 3059,
      "_setting": 3060,
      "_smoot": 3061,
      "##_match": 3062,
      "##_mvs": 3063,
      "buff_s": 3064,
      "buff_t": 3065,
      "tmpx": 3066,
      "acgt_": 3067,
      "##remainder": 3068,
      "##vector": 3069,
      "rs_t": 3070,
      "rs_s": 3071,
      "memview": 3072,
      "_mm_cvt": 3073,
      "__pyx_v_smoother": 3074,
      "test_simde_x_mm_deinterleave": 3075,
      "##head_i": 3076,
      "##hed_meas": 3077,
      "cs_b": 3078,
      "cs_s": 3079,
      "vecval": 3080,
      "src_copy": 3081,
      "##hijklmn": 3082,
      "keyword": 3083,
      "new_prop": 3084,
      "##not_": 3085,
      "##serdata": 3086,
      "command": 3087,
      "counts": 3088,
      "##kalmansmoother": 3089,
      "__pyx_v_src_stride": 3090,
      "isl_multi_pw_aff": 3091,
      "##dim_max": 3092,
      "ngx_stream_in": 3093,
      "buff_y": 3094,
      "buff_z": 3095,
      "##_get_dt": 3096,
      "ukr_fp": 3097,
      "__pyx_v_dst_stride": 3098,
      "slevels": 3099,
      "_mm_castsi": 3100,
      "icell": 3101,
      "vsignx": 3102,
      "##urement_di": 3103,
      "struct_otf_pair": 3104,
      "dst_copy": 3105,
      "ndalloc": 3106,
      "aperf": 3107,
      "_kalman_s": 3108,
      "isl_multi_union_pw_aff_free": 3109,
      "iter_dim": 3110,
      "mperf": 3111,
      "##_distance_double": 3112,
      "from_mvs": 3113,
      "##v_lift_int": 3114,
      "segment": 3115,
      "total": 3116,
      "head_tmpy": 3117,
      "complex_": 3118,
      "test_simde_wasm_i": 3119,
      "##state_s": 3120,
      "##_scalar": 3121,
      "aws_http": 3122,
      "functioninfo_": 3123,
      "##el_dim_max": 3124,
      "partner_": 3125,
      "##gmrest": 3126,
      "_forecast_error_cov": 3127,
      "dot_start": 3128,
      "bli_func_get_dt": 3129,
      "x_head_i": 3130,
      "initiators": 3131,
      "csumj": 3132,
      "sqrt": 3133,
      "##ify": 3134,
      "algorith": 3135,
      "x_tail_i": 3136,
      "openssl_": 3137,
      "p_netlib_zscal_": 3138,
      "##s_cov": 3139,
      "hypre_fgmrest": 3140,
      "_obs_cov": 3141,
      "kms_k": 3142,
      "noalias": 3143,
      "n_way": 3144,
      "panel_dim_max": 3145,
      "##barcode": 3146,
      "##bance_cov": 3147,
      "exr_attr": 3148,
      "##sturbance_cov": 3149,
      "libxsmm_dnn": 3150,
      "_smoothed_meas": 3151,
      "acgt_sum": 3152,
      "src_copy_start": 3153,
      "##urement_disturbance_cov": 3154,
      "dst_copy_start": 3155,
      "partner_hash": 3156,
      "_smoothed_measurement_disturbance_cov": 3157,
      "_pi": 3158,
      "bs": 3159,
      "cj": 3160,
      "epi": 3161,
      "ker_id": 3162,
      "lu": 3163,
      "lr": 3164,
      "msg": 3165,
      "ssl_": 3166,
      "udata": 3167,
      "wid": 3168,
      "y_data": 3169,
      "##_val": 3170,
      "##_dec": 3171,
      "##_ne": 3172,
      "##ip": 3173,
      "##dk": 3174,
      "##fe": 3175,
      "##etch": 3176,
      "##al_s": 3177,
      "##requ": 3178,
      "ins": 3179,
      "##ntx_": 3180,
      "force": 3181,
      "##_pref": 3182,
      "##oding": 3183,
      "strcmp": 3184,
      "_mm_set": 3185,
      "dist_": 3186,
      "##oll": 3187,
      "##_sk": 3188,
      "##_special_": 3189,
      "rev": 3190,
      "request": 3191,
      "##_test_": 3192,
      "##_total": 3193,
      "__pyx_t_float": 3194,
      "__pyx_t_double": 3195,
      "##_cntx_": 3196,
      "shi": 3197,
      "##pend": 3198,
      "##ach": 3199,
      "_mm_max_": 3200,
      "##hift": 3201,
      "##pwgts": 3202,
      "##gest": 3203,
      "##gths": 3204,
      "##_stream": 3205,
      "proc": 3206,
      "_castps": 3207,
      "reloc": 3208,
      "hwloc_": 3209,
      "hwloc_bit": 3210,
      "hwloc_special_": 3211,
      "##tices": 3212,
      "##check_": 3213,
      "##fix": 3214,
      "setting": 3215,
      "_mask_sll_epi": 3216,
      "##_token": 3217,
      "_mm_load_ps": 3218,
      "##_counter": 3219,
      "##statespace": 3220,
      "__res": 3221,
      "##_depth": 3222,
      "##_handle": 3223,
      "##level_s": 3224,
      "isl_multi_aff": 3225,
      "quer": 3226,
      "field": 3227,
      "ukr_dt": 3228,
      "items": 3229,
      "##s_ssl_": 3230,
      "bli_cntx_": 3231,
      "##_procs": 3232,
      "##axpy": 3233,
      "##context": 3234,
      "##quest_": 3235,
      "ker_fp": 3236,
      "##br_t": 3237,
      "vnanmaskh": 3238,
      "##readinfo": 3239,
      "##elta": 3240,
      "nlf": 3241,
      "isl_union_map_free": 3242,
      "as_ff": 3243,
      "scanline": 3244,
      "mbedtls_ssl_": 3245,
      "_mm_min_ps": 3246,
      "##invscalv": 3247,
      "##ciph": 3248,
      "targets": 3249,
      "hwloc__xml_export_state_s": 3250,
      "isl_union_map_read_from_str": 3251,
      "openssl_sk": 3252,
      "exr_attr_string": 3253,
      "epilog": 3254,
      "_mm_max_epi": 3255,
      "hwloc_special_level_s": 3256,
      "_or": 3257,
      "_si": 3258,
      "c_ij": 3259,
      "caps": 3260,
      "h_meta": 3261,
      "kapp": 3262,
      "low": 3263,
      "ntt": 3264,
      "nfl": 3265,
      "nnb": 3266,
      "old": 3267,
      "queue": 3268,
      "rt_": 3269,
      "sn": 3270,
      "##child": 3271,
      "##_me": 3272,
      "##mpr": 3273,
      "##eren": 3274,
      "##pair": 3275,
      "##vali": 3276,
      "##gh": 3277,
      "##sor": 3278,
      "##space": 3279,
      "##dot": 3280,
      "##zes": 3281,
      "##trange": 3282,
      "flat": 3283,
      "in_mem": 3284,
      "in_reg": 3285,
      "addres": 3286,
      "template": 3287,
      "##_push": 3288,
      "##arch": 3289,
      "##sition": 3290,
      "##ress_": 3291,
      "##umn": 3292,
      "##d_n": 3293,
      "##en_t": 3294,
      "##destroy": 3295,
      "##ceive": 3296,
      "##_sf": 3297,
      "fpt": 3298,
      "##_msg": 3299,
      "##sclr": 3300,
      "beta_c": 3301,
      "##_initiator": 3302,
      "status": 3303,
      "##objs": 3304,
      "##update": 3305,
      "result_": 3306,
      "spdk": 3307,
      "##p_len": 3308,
      "##vent": 3309,
      "simde_vz": 3310,
      "jj_counter": 3311,
      "nodeset": 3312,
      "ngx_list": 3313,
      "##_tostruct": 3314,
      "##_file": 3315,
      "dns_rdata_tostruct": 3316,
      "##attrs": 3317,
      "simde_vaddd_": 3318,
      "nbobjs": 3319,
      "isl_union_set": 3320,
      "ngx_stream_list": 3321,
      "ukr_id": 3322,
      "contents": 3323,
      "##_cont": 3324,
      "simde_vshrd_n": 3325,
      "header": 3326,
      "##_distance_char": 3327,
      "frombool": 3328,
      "imi": 3329,
      "test_simde_vsrad_n_s": 3330,
      "test_simde_vsrad_n_u": 3331,
      "sockaddr": 3332,
      "rd_kafka_buf_write_str": 3333,
      "aapha": 3334,
      "##bose": 3335,
      "barcode_info_t": 3336,
      "##even": 3337,
      "tags_barcode": 3338,
      "complete_nodeset": 3339,
      "isl_printer_print_str": 3340,
      "mesh": 3341,
      "xmlstr": 3342,
      "algorithm": 3343,
      "kappa_c": 3344,
      "nflush": 3345,
      "spdk_cpuset": 3346,
      "ngx_stream_listen_t": 3347,
      "best_": 3348,
      "ei": 3349,
      "fa": 3350,
      "fuzz": 3351,
      "hull": 3352,
      "jo": 3353,
      "lv": 3354,
      "lstats": 3355,
      "mv": 3356,
      "md": 3357,
      "otf": 3358,
      "per": 3359,
      "rte": 3360,
      "sl": 3361,
      "sbit": 3362,
      "tp": 3363,
      "ws": 3364,
      "##lut": 3365,
      "##case": 3366,
      "##_op": 3367,
      "##_eq": 3368,
      "##_equal": 3369,
      "##tch": 3370,
      "##eg": 3371,
      "##eds": 3372,
      "##ppend": 3373,
      "##io": 3374,
      "##hit": 3375,
      "##sm": 3376,
      "##sym": 3377,
      "##fc": 3378,
      "##fs": 3379,
      "##tropy": 3380,
      "##batch": 3381,
      "##rement": 3382,
      "##reach": 3383,
      "inptr": 3384,
      "init": 3385,
      "std": 3386,
      "multi": 3387,
      "##_ph": 3388,
      "last": 3389,
      "##d_extension": 3390,
      "##enseq": 3391,
      "##int_from": 3392,
      "##ainer": 3393,
      "heap": 3394,
      "thresh": 3395,
      "##_sym": 3396,
      "##_sock": 3397,
      "##_sbit": 3398,
      "##mac": 3399,
      "##_cast": 3400,
      "##dict": 3401,
      "_cm": 3402,
      "__pyx_v_values": 3403,
      "##_fast": 3404,
      "##_flag": 3405,
      "##_float": 3406,
      "##geo": 3407,
      "##_abs": 3408,
      "##_append": 3409,
      "input_a": 3410,
      "input_b": 3411,
      "_perm": 3412,
      "##loba": 3413,
      "dbeta_img": 3414,
      "dgamma_img": 3415,
      "dof": 3416,
      "##buf_data": 3417,
      "##first": 3418,
      "dnskey": 3419,
      "spng_": 3420,
      "spng_sbit": 3421,
      "dns_d": 3422,
      "##from_call": 3423,
      "point": 3424,
      "position": 3425,
      "##_to_target": 3426,
      "##_internal": 3427,
      "##_destroy": 3428,
      "count_total": 3429,
      "##krs": 3430,
      "hypre_b": 3431,
      "##equal_f": 3432,
      "__pyx_pyint_from": 3433,
      "rangeoc": 3434,
      "dst_key": 3435,
      "simde_test_": 3436,
      "kvtree": 3437,
      "params": 3438,
      "pwgts": 3439,
      "ctversion": 3440,
      "sample_to_target": 3441,
      "strings": 3442,
      "##_params": 3443,
      "version": 3444,
      "aws_http_": 3445,
      "##condenseq": 3446,
      "langu": 3447,
      "ossl_check_": 3448,
      "next_elt": 3449,
      "int_buf_data": 3450,
      "__pyx_getitemint_fast": 3451,
      "nrequests": 3452,
      "##_sk_type": 3453,
      "openssl_sk_value": 3454,
      "rt_from_call": 3455,
      "flatgeo": 3456,
      "lvl": 3457,
      "slop": 3458,
      "##symbol": 3459,
      "simde_test_equal_f": 3460,
      "ossl_check_const_": 3461,
      "b_data": 3462,
      "cau": 3463,
      "ctime": 3464,
      "cycle": 3465,
      "coarse": 3466,
      "dr": 3467,
      "domain": 3468,
      "fblock": 3469,
      "frequ": 3470,
      "gc_": 3471,
      "gapp": 3472,
      "handle": 3473,
      "ie": 3474,
      "ihat": 3475,
      "job": 3476,
      "kers": 3477,
      "n_a": 3478,
      "nparam": 3479,
      "opr": 3480,
      "sect": 3481,
      "spec": 3482,
      "ts_a": 3483,
      "tab": 3484,
      "tail": 3485,
      "vu": 3486,
      "w_i": 3487,
      "xyz": 3488,
      "##aa": 3489,
      "##aint": 3490,
      "##odd": 3491,
      "##ol_": 3492,
      "##chi": 3493,
      "##cus": 3494,
      "##_idx": 3495,
      "##_ex": 3496,
      "##_remainder": 3497,
      "##ew": 3498,
      "##per": 3499,
      "##p_internal": 3500,
      "##rst_": 3501,
      "##by": 3502,
      "##bd": 3503,
      "##h_mask": 3504,
      "##fg": 3505,
      "##fetch": 3506,
      "dbit": 3507,
      "inward": 3508,
      "getitem": 3509,
      "##ext_j": 3510,
      "##or_si": 3511,
      "nsock": 3512,
      "lin": 3513,
      "tempr": 3514,
      "tempi": 3515,
      "##_pie": 3516,
      "##_ind": 3517,
      "inc_x": 3518,
      "##ening_s": 3519,
      "thrinfo": 3520,
      "##_shape": 3521,
      "view": 3522,
      "##ma_tests": 3523,
      "##outine": 3524,
      "sum_ptr": 3525,
      "rep_len": 3526,
      "##_th": 3527,
      "##sec": 3528,
      "##_com": 3529,
      "_cvt": 3530,
      "##ity": 3531,
      "_mm_or_si": 3532,
      "##uni": 3533,
      "vxwxyz": 3534,
      "isl_val": 3535,
      "outward": 3536,
      "##offb": 3537,
      "sumsq_ptr": 3538,
      "##ions": 3539,
      "input_add_f": 3540,
      "##_inf": 3541,
      "vtable": 3542,
      "##ient": 3543,
      "data_type": 3544,
      "py_r": 3545,
      "##str_t": 3546,
      "##straint": 3547,
      "##uri": 3548,
      "vywxyz": 3549,
      "##_range": 3550,
      "##chain": 3551,
      "rs_y": 3552,
      "rs_z": 3553,
      "memattrs": 3554,
      "##al_u": 3555,
      "##ypos": 3556,
      "##er_sub": 3557,
      "cs_y": 3558,
      "cs_z": 3559,
      "cs_ct": 3560,
      "del_input_f": 3561,
      "##term": 3562,
      "ldt": 3563,
      "curfile": 3564,
      "_xml": 3565,
      "update": 3566,
      "##_len_decoder": 3567,
      "##_array_t": 3568,
      "output_f": 3569,
      "vscale_to": 3570,
      "##_conf": 3571,
      "},~{": 3572,
      "##order": 3573,
      "posdata": 3574,
      "print_ver": 3575,
      "print_clocks_data": 3576,
      "test_simde_vfma": 3577,
      "test_simde_mm_mask": 3578,
      "gt_array": 3579,
      "##_col_s": 3580,
      "parse": 3581,
      "vsignh": 3582,
      "##fter_sub": 3583,
      "incbij": 3584,
      "##unknown": 3585,
      "kvs": 3586,
      "pwf": 3587,
      "ker_dt": 3588,
      "vexpw_max": 3589,
      "##ort_t": 3590,
      "copy_size": 3591,
      "vnonsignh": 3592,
      "mn_ahead": 3593,
      "diagoffb": 3594,
      "##_length_decoder": 3595,
      "match_len_decoder": 3596,
      "isl_map_free": 3597,
      "t_ri": 3598,
      "##age_type": 3599,
      "isl_basic_set_read_from_str": 3600,
      "vl_h": 3601,
      "lzma_length_decoder": 3602,
      "a_ext_j": 3603,
      "long_code": 3604,
      "##_keys": 3605,
      "ucp_proto_select": 3606,
      "##se_e": 3607,
      "_maskz_sll_epi": 3608,
      "_mb": 3609,
      "descr": 3610,
      "zip_internal": 3611,
      "##_defs": 3612,
      "##eights": 3613,
      "sig_alg_len": 3614,
      "emitter_col_s": 3615,
      "tail_tmpy": 3616,
      "##_group_": 3617,
      "absa": 3618,
      "isl_union_pw_multi_aff_read_from_str": 3619,
      "malloc_heaps": 3620,
      "##lude": 3621,
      "##_acl": 3622,
      "linebuf": 3623,
      "build": 3624,
      "distances": 3625,
      "modules": 3626,
      "sorted": 3627,
      "packed_": 3628,
      "##_reset": 3629,
      "_kalman_smoother": 3630,
      "lua": 3631,
      "ngx_listening_s": 3632,
      "aaphase_e": 3633,
      "##bose_clocks_data": 3634,
      "perf_": 3635,
      "##reachable": 3636,
      "spng_unknown": 3637,
      "__pyx_pyint_from_int": 3638,
      "caucus": 3639,
      "frequency": 3640,
      "oprs": 3641,
      "ts_after_sub": 3642,
      "dbiterator": 3643,
      "nsockets": 3644,
      "##_piece": 3645,
      "thrinfo_s": 3646,
      "##outine_defs": 3647,
      "rep_len_decoder": 3648,
      "py_routine_defs": 3649,
      "curfile_info": 3650,
      "_xmlpar": 3651,
      "print_verbose_clocks_data": 3652,
      "spng_unknown_chunk": 3653,
      "_start": 3654,
      "ax": 3655,
      "an": 3656,
      "back": 3657,
      "cn": 3658,
      "cinfo": 3659,
      "crdata": 3660,
      "cache": 3661,
      "direct": 3662,
      "gc": 3663,
      "hand": 3664,
      "jcol": 3665,
      "lx": 3666,
      "l_count": 3667,
      "nr_block": 3668,
      "pix": 3669,
      "rd": 3670,
      "round": 3671,
      "sa": 3672,
      "san": 3673,
      "smax": 3674,
      "sprintf": 3675,
      "tou": 3676,
      "t_array_t": 3677,
      "u_j": 3678,
      "ztemp": 3679,
      "##ond": 3680,
      "##ot_": 3681,
      "##ox_": 3682,
      "##_la": 3683,
      "##_cmp": 3684,
      "##_arr": 3685,
      "##table": 3686,
      "##ere": 3687,
      "##nel": 3688,
      "##n_epi": 3689,
      "##rand": 3690,
      "##so": 3691,
      "##f_p": 3692,
      "##nd_t": 3693,
      "##ull_": 3694,
      "##proc": 3695,
      "##ord_": 3696,
      "##etab": 3697,
      "strn": 3698,
      "exc": 3699,
      "brot": 3700,
      "##yvalue": 3701,
      "##stype": 3702,
      "##annel": 3703,
      "##notation": 3704,
      "rep": 3705,
      "##locks": 3706,
      "##_comple": 3707,
      "##uffix": 3708,
      "##_fused": 3709,
      "##_as": 3710,
      "_rcp": 3711,
      "pyuni": 3712,
      "##chunk": 3713,
      "expected": 3714,
      "##estn_epi": 3715,
      "_ip": 3716,
      "memory": 3717,
      "rd_kafka_msg": 3718,
      "##_first": 3719,
      "##_array_get": 3720,
      "##_constraint": 3721,
      "_mask_sub_ps": 3722,
      "##ctionary": 3723,
      "##verse": 3724,
      "_testn_epi": 3725,
      "##_curve": 3726,
      "cellsize": 3727,
      "cellstart": 3728,
      "##_coef": 3729,
      "bli_is_": 3730,
      "code_length": 3731,
      "ncj": 3732,
      "ncig": 3733,
      "quo_vadis_internal_hwloc_internal_memattr_initiator": 3734,
      "vnonsign_mask": 3735,
      "is_zero": 3736,
      "ciph_d": 3737,
      "matches": 3738,
      "isl_basic_set_free": 3739,
      "_mm_storeu_si": 3740,
      "imtg": 3741,
      "gist": 3742,
      "arena_stats_s": 3743,
      "##eight": 3744,
      "as_fc": 3745,
      "_polyvec": 3746,
      "malloc_heap": 3747,
      "recv_sf": 3748,
      "##class": 3749,
      "##ndiff": 3750,
      "_j__": 3751,
      "libxsmm_dnn_fused": 3752,
      "shift": 3753,
      "bli_cntx_get": 3754,
      "_or_epi": 3755,
      "##validity": 3756,
      "##ress_struct": 3757,
      "simde_vzip": 3758,
      "##_container": 3759,
      "##batchnorm": 3760,
      "stderr": 3761,
      "aws_http_header": 3762,
      "##bda": 3763,
      "gt_array_get": 3764,
      "annotation": 3765,
      "backward": 3766,
      "direction": 3767,
      "handles": 3768,
      "touched": 3769,
      "brotli": 3770,
      "pyunicode": 3771,
      "quo_vadis_internal_hwloc_internal_memattr_initiator_s": 3772,
      "libxsmm_dnn_fusedbatchnorm": 3773,
      "_n": 3774,
      "__i": 3775,
      "_off": 3776,
      "_mullo_epi": 3777,
      "_addr_t": 3778,
      "af": 3779,
      "bk": 3780,
      "bins": 3781,
      "cc": 3782,
      "ce": 3783,
      "cv": 3784,
      "c_abs": 3785,
      "cterm": 3786,
      "fai": 3787,
      "f_dim": 3788,
      "gap": 3789,
      "g_tw": 3790,
      "hfi": 3791,
      "has_": 3792,
      "jpeg": 3793,
      "kl": 3794,
      "kca": 3795,
      "np": 3796,
      "nz": 3797,
      "non": 3798,
      "nel": 3799,
      "ndiff": 3800,
      "ol": 3801,
      "p_offd_j": 3802,
      "port": 3803,
      "ring": 3804,
      "solv": 3805,
      "td": 3806,
      "tid": 3807,
      "tar": 3808,
      "uval": 3809,
      "vli": 3810,
      "w_ij": 3811,
      "##a_tests": 3812,
      "##ly": 3813,
      "##ove": 3814,
      "##cs": 3815,
      "##_or": 3816,
      "##_ff": 3817,
      "##_addr_t": 3818,
      "##_result": 3819,
      "##mv": 3820,
      "##mi": 3821,
      "##tonec": 3822,
      "##epu": 3823,
      "##n_": 3824,
      "##k_t": 3825,
      "##y_pr": 3826,
      "##ger": 3827,
      "##bl_": 3828,
      "##byte": 3829,
      "##ision": 3830,
      "##har": 3831,
      "##hod": 3832,
      "##seti": 3833,
      "##sses": 3834,
      "##dc_": 3835,
      "##work": 3836,
      "##word_": 3837,
      "##zer": 3838,
      "numb": 3839,
      "num_procs": 3840,
      "##ethod": 3841,
      "##ayout": 3842,
      "##ptrs": 3843,
      "##ores": 3844,
      "##ore_t": 3845,
      "##idth": 3846,
      "##onal": 3847,
      "##lax_": 3848,
      "##_perf": 3849,
      "##_parts": 3850,
      "##_path": 3851,
      "ex_block": 3852,
      "prefix": 3853,
      "dis": 3854,
      "##_ix": 3855,
      "##erse": 3856,
      "##x_from": 3857,
      "##mgr": 3858,
      "##d_to": 3859,
      "##d_rank": 3860,
      "inc_u": 3861,
      "inc_z": 3862,
      "##st_tests": 3863,
      "##enorm": 3864,
      "##ingth": 3865,
      "##initiali": 3866,
      "##ompnd_t": 3867,
      "##set_tests": 3868,
      "##not_ps": 3869,
      "restype": 3870,
      "##_tbl_": 3871,
      "##_carr": 3872,
      "sha": 3873,
      "short": 3874,
      "##digest": 3875,
      "_cms": 3876,
      "_core_t": 3877,
      "__pyx_v_z": 3878,
      "##_bu": 3879,
      "##nect": 3880,
      "##nel_": 3881,
      "##util": 3882,
      "isl_poly": 3883,
      "sizes": 3884,
      "_sh": 3885,
      "##_sibling": 3886,
      "fpto": 3887,
      "all": 3888,
      "input_offset": 3889,
      "##scurve": 3890,
      "prox": 3891,
      "##emain": 3892,
      "##shape": 3893,
      "aio": 3894,
      "pytype": 3895,
      "zeroinitiali": 3896,
      "split": 3897,
      "simde_vcombine": 3898,
      "hwloc_list_s": 3899,
      "shape_tr": 3900,
      "ctxt": 3901,
      "##_rr": 3902,
      "rs_ct": 3903,
      "_i_j": 3904,
      "rows": 3905,
      "enum": 3906,
      "woo": 3907,
      "##_interse": 3908,
      "##s_tests": 3909,
      "ngx_chain": 3910,
      "_mask_madd_epi": 3911,
      "vidx_h": 3912,
      "##_column": 3913,
      "##ter_current": 3914,
      "dns_rdata_reset": 3915,
      "dns_rdataseti": 3916,
      "##_set_tests": 3917,
      "##olver": 3918,
      "graph_t": 3919,
      "children": 3920,
      "##_hash": 3921,
      "##_connection": 3922,
      "hwloc_obj_info_s": 3923,
      "edges": 3924,
      "##_check_": 3925,
      "##_multiplier": 3926,
      "##point": 3927,
      "vminus_zero_point": 3928,
      "ukr_pref": 3929,
      "redset": 3930,
      "##s_sort": 3931,
      "##s_spec": 3932,
      "bli_blksz": 3933,
      "vdenorm": 3934,
      "##learn_": 3935,
      "s_solver": 3936,
      "frame": 3937,
      "pcptr": 3938,
      "pchild": 3939,
      "gtcondenseq": 3940,
      "diagonal": 3941,
      "##nection_s": 3942,
      "math_max_s": 3943,
      "prev_sibling": 3944,
      "notify": 3945,
      "##headerrec": 3946,
      "ngx_stream_conf_p": 3947,
      "##ee_node": 3948,
      "probes": 3949,
      "math_min_s": 3950,
      "##cycle": 3951,
      "arena_s": 3952,
      "t_compnd_t": 3953,
      "proto_id": 3954,
      "functions": 3955,
      "_andnot_ps": 3956,
      "##pecial_objects": 3957,
      "##label": 3958,
      "grid_re": 3959,
      "rkm_u": 3960,
      "factorize_min": 3961,
      "##ortremain": 3962,
      "chunk_list": 3963,
      "isl_pw_qpolynomial_f": 3964,
      "##classes": 3965,
      "_mm_srli_si": 3966,
      "_mm_srli_pi": 3967,
      "gtsortremain": 3968,
      "sklearn_": 3969,
      "literal_carr": 3970,
      "isl_schedule_node": 3971,
      "libmetis__iset": 3972,
      "mro": 3973,
      "##segment": 3974,
      "ngx_connection_s": 3975,
      "vumin": 3976,
      "_mm_cvtsi": 3977,
      "segmentheaderrec": 3978,
      "kms_kv_t": 3979,
      "lrint": 3980,
      "widen": 3981,
      "insn": 3982,
      "force_or": 3983,
      "__pyx_t_float_complex": 3984,
      "__pyx_t_double_complex": 3985,
      "hwloc_util": 3986,
      "querypos": 3987,
      "##cipher": 3988,
      "##erence": 3989,
      "address_sort": 3990,
      "result_digest": 3991,
      "xmlstrequal": 3992,
      "##casecmp": 3993,
      "drop": 3994,
      "##_thread_": 3995,
      "ldtb": 3996,
      "_mb_ctx": 3997,
      "pixel_": 3998,
      "##_complex_from": 3999,
      "kcapi": 4000,
      "nelts": 4001,
      "ringbuffer": 4002,
      "tar_file": 4003,
      "##y_protocol": 4004,
      "##ingthreadinfo": 4005,
      "##_tbl_ptrs": 4006,
      "shortname": 4007,
      "fptosi": 4008,
      "proxy_protocol": 4009,
      "zeroinitializer": 4010,
      "hwloc_list_special_objects": 4011,
      "shape_tree_node": 4012,
      "_i_j__": 4013,
      "ngx_chain_s": 4014,
      "dns_rdatasetiter_current": 4015,
      "bli_blksz_copy": 4016,
      "vdenorm_cutoff": 4017,
      "gtcondenseqblast": 4018,
      "ngx_stream_conf_port_t": 4019,
      "gtsortremainingthreadinfo": 4020,
      "literal_carry": 4021,
      "force_orient": 4022,
      "##_complex_from_parts": 4023,
      "_un": 4024,
      "_blend": 4025,
      "base": 4026,
      "dlist": 4027,
      "ecol": 4028,
      "fcp": 4029,
      "ku": 4030,
      "kr_block": 4031,
      "ms": 4032,
      "ncols": 4033,
      "oim": 4034,
      "pg": 4035,
      "psk": 4036,
      "pow": 4037,
      "piv": 4038,
      "poll": 4039,
      "q_dim": 4040,
      "sd": 4041,
      "smin": 4042,
      "tw": 4043,
      "ttl": 4044,
      "tpwgts": 4045,
      "vbeta": 4046,
      "xk": 4047,
      "##msk": 4048,
      "##mov": 4049,
      "##v_ps": 4050,
      "##vinfo": 4051,
      "##rm": 4052,
      "##git": 4053,
      "##buff": 4054,
      "##box": 4055,
      "##ipy": 4056,
      "##fr": 4057,
      "##fortr": 4058,
      "##qmov": 4059,
      "##lid": 4060,
      "##elete": 4061,
      "##ctype": 4062,
      "##atur": 4063,
      "##atter": 4064,
      "##at_cutoff": 4065,
      "indent": 4066,
      "nst": 4067,
      "##l_t": 4068,
      "##_pe": 4069,
      "##_plu": 4070,
      "##t_array": 4071,
      "##sit": 4072,
      "dir": 4073,
      "##rescale": 4074,
      "##resource": 4075,
      "##_indi": 4076,
      "##umns": 4077,
      "##stdiff": 4078,
      "##stant": 4079,
      "##ock_": 4080,
      "##deg": 4081,
      "##anobject": 4082,
      "libpo": 4083,
      "##_skalmanfilter": 4084,
      "receive": 4085,
      "##_tab": 4086,
      "##_ckalmanfilter": 4087,
      "short_": 4088,
      "##mult": 4089,
      "_mm_max_ps": 4090,
      "__pyx_v_arr": 4091,
      "##_byte": 4092,
      "##un_tests": 4093,
      "##_fre": 4094,
      "_sup": 4095,
      "_sll_epi": 4096,
      "vaccghijklmn": 4097,
      "##_malloc": 4098,
      "nisize": 4099,
      "hist": 4100,
      "high": 4101,
      "expand": 4102,
      "##_inv": 4103,
      "##ages": 4104,
      "##ower_": 4105,
      "##ops": 4106,
      "_rsqr": 4107,
      "vprescale": 4108,
      "tmptype": 4109,
      "pyfortr": 4110,
      "##ss_info": 4111,
      "##ssage": 4112,
      "vnbr_t": 4113,
      "##upp": 4114,
      "vy_max": 4115,
      "vy_min": 4116,
      "vf_hi": 4117,
      "vf_lo": 4118,
      "##_dkalmanfilter": 4119,
      "##tice": 4120,
      "##ametab": 4121,
      "##chr": 4122,
      "##_gi": 4123,
      "##buf_column": 4124,
      "##est_path": 4125,
      "env": 4126,
      "gamma_lut": 4127,
      "first_": 4128,
      "##_infos": 4129,
      "scipy": 4130,
      "vsat_cutoff": 4131,
      "##ted_": 4132,
      "src_strides": 4133,
      "##_set_item": 4134,
      "##_wbuffer": 4135,
      "unbind": 4136,
      "##_huff": 4137,
      "##_hdr": 4138,
      "##ortable": 4139,
      "##ortest_path": 4140,
      "##_spmsk": 4141,
      "objs": 4142,
      "obso": 4143,
      "nexts": 4144,
      "isl_multi_id": 4145,
      "##graph_": 4146,
      "##ctxt": 4147,
      "cnt_offd": 4148,
      "cnt_diag": 4149,
      "_tab": 4150,
      "print_def": 4151,
      "blocksize": 4152,
      "class_info": 4153,
      "##_costs": 4154,
      "cram_container": 4155,
      "code_list": 4156,
      "isl_pw_aff": 4157,
      "##_zkalmanfilter": 4158,
      "dst_strides": 4159,
      "seed": 4160,
      "pytuple_set_item": 4161,
      "libmetis__r": 4162,
      "xadj": 4163,
      "_kalman_filter_skalmanfilter": 4164,
      "_kalman_filter_ckalmanfilter": 4165,
      "_kalman_filter_dkalmanfilter": 4166,
      "_kalman_filter_zkalmanfilter": 4167,
      "##number": 4168,
      "##increment": 4169,
      "isl_pw_multi_aff_read_from_str": 4170,
      "##stal_token": 4171,
      "ctrl_t": 4172,
      "##_seqid": 4173,
      "##ing_sortable": 4174,
      "char_ptr": 4175,
      "cmd": 4176,
      "pass": 4177,
      "##condition": 4178,
      "tile": 4179,
      "time": 4180,
      "isl_union_pw_multi_aff_free": 4181,
      "csgraph_": 4182,
      "bind_p": 4183,
      "chunk_id": 4184,
      "##_domain_tests": 4185,
      "gtspec": 4186,
      "literal_costs": 4187,
      "checksum": 4188,
      "ahat_offd": 4189,
      "local": 4190,
      "test_simde_vmlal_s": 4191,
      "test_simde_vmlal_u": 4192,
      "sparse_": 4193,
      "rd_kafka_configresource": 4194,
      "##joint": 4195,
      "bsz": 4196,
      "##_decref": 4197,
      "exr_attr_string_t": 4198,
      "jose": 4199,
      "dof_func": 4200,
      "flatgeobuf_column": 4201,
      "_cvtepu": 4202,
      "##_conf_t": 4203,
      "packed_w": 4204,
      "cache_bin": 4205,
      "##proces": 4206,
      "strncmp": 4207,
      "exc_type": 4208,
      "##_assign": 4209,
      "bkj": 4210,
      "_shortest_path": 4211,
      "pytype_check": 4212,
      "##_check_equal": 4213,
      "address_sorting_sortable": 4214,
      "_blendv_ps": 4215,
      "fcpos": 4216,
      "##attern": 4217,
      "##_plugin": 4218,
      "##_indices": 4219,
      "libpostal_token": 4220,
      "_rsqrt": 4221,
      "pyfortranobject": 4222,
      "scipy_": 4223,
      "obsole": 4224,
      "isl_multi_id_read_from_str": 4225,
      "rd_kafka_configresource_s": 4226,
      "_x_": 4227,
      "_lib": 4228,
      "_seq": 4229,
      "api": 4230,
      "asr": 4231,
      "bm": 4232,
      "bwt": 4233,
      "beg": 4234,
      "cent": 4235,
      "cstep": 4236,
      "dg": 4237,
      "del": 4238,
      "d_q": 4239,
      "dsclr": 4240,
      "ev": 4241,
      "event": 4242,
      "fw": 4243,
      "hd": 4244,
      "hits": 4245,
      "hdr": 4246,
      "itemp": 4247,
      "jb": 4248,
      "jinc": 4249,
      "kind": 4250,
      "ls": 4251,
      "lat": 4252,
      "log": 4253,
      "mid": 4254,
      "m_c": 4255,
      "mast": 4256,
      "mvs": 4257,
      "m_ac": 4258,
      "mis": 4259,
      "nea": 4260,
      "nrows": 4261,
      "nqual": 4262,
      "nametab": 4263,
      "p_diag_data": 4264,
      "p_offd_data": 4265,
      "p_diag_i": 4266,
      "qv": 4267,
      "rstep": 4268,
      "rwork": 4269,
      "s_": 4270,
      "tt": 4271,
      "tsc": 4272,
      "uti": 4273,
      "using": 4274,
      "undiff": 4275,
      "vs_": 4276,
      "vag": 4277,
      "vwgt": 4278,
      "wh": 4279,
      "w_product": 4280,
      "w_biased": 4281,
      "w_clamped": 4282,
      "w_scaled": 4283,
      "x_product": 4284,
      "x_biased": 4285,
      "x_clamped": 4286,
      "x_scaled": 4287,
      "yl": 4288,
      "yh": 4289,
      "y_product": 4290,
      "y_biased": 4291,
      "y_clamped": 4292,
      "y_scaled": 4293,
      "za": 4294,
      "zx": 4295,
      "zy": 4296,
      "zbl": 4297,
      "z_product": 4298,
      "z_biased": 4299,
      "z_clamped": 4300,
      "z_scaled": 4301,
      "##ls_": 4302,
      "##ont": 4303,
      "##cas": 4304,
      "##_ba": 4305,
      "##_base": 4306,
      "##_zero_point": 4307,
      "##_less_zero_point": 4308,
      "##_status": 4309,
      "##_left": 4310,
      "##module": 4311,
      "##uc": 4312,
      "##userdata": 4313,
      "##x_point": 4314,
      "##nbr": 4315,
      "##vor": 4316,
      "##ratch": 4317,
      "##rases": 4318,
      "##ix_": 4319,
      "##sy": 4320,
      "##sv": 4321,
      "##for": 4322,
      "##f_m": 4323,
      "##flag": 4324,
      "##zcnt": 4325,
      "##oui": 4326,
      "##le_connection": 4327,
      "##reate": 4328,
      "inct": 4329,
      "inv_lift_int": 4330,
      "##ntial": 4331,
      "##ctl": 4332,
      "##idim": 4333,
      "##atchi": 4334,
      "##labs": 4335,
      "##lax_point": 4336,
      "strcasecmp": 4337,
      "startc": 4338,
      "start_x": 4339,
      "dest": 4340,
      "##sive": 4341,
      "##dsc": 4342,
      "subchunk": 4343,
      "prefs": 4344,
      "dictionary": 4345,
      "##valtonec": 4346,
      "constant": 4347,
      "##ress": 4348,
      "##results": 4349,
      "decision": 4350,
      "##stack": 4351,
      "##d_data": 4352,
      "##d_lift_int": 4353,
      "inc_d": 4354,
      "##ammar": 4355,
      "##s_array": 4356,
      "##s_state": 4357,
      "##s_userdata": 4358,
      "##inf": 4359,
      "head_result": 4360,
      "##depth": 4361,
      "##fmt": 4362,
      "##conver": 4363,
      "##__slice": 4364,
      "tail_result": 4365,
      "##_sq": 4366,
      "##_sample": 4367,
      "needs": 4368,
      "##squ": 4369,
      "##set_seq": 4370,
      "repli": 4371,
      "relax_": 4372,
      "##uential": 4373,
      "##_test": 4374,
      "trie": 4375,
      "##sevaltonec": 4376,
      "##_clear": 4377,
      "##_cycle": 4378,
      "show": 4379,
      "##diag": 4380,
      "_copy": 4381,
      "##ped": 4382,
      "abl": 4383,
      "abst": 4384,
      "absc": 4385,
      "__pyx_v_x_": 4386,
      "__pyx_v_mem": 4387,
      "##uffix_": 4388,
      "##_bind": 4389,
      "vkrinfo": 4390,
      "__pyx_v_itemp": 4391,
      "##_for": 4392,
      "##defs": 4393,
      "vaccghijklmnopqrstuv": 4394,
      "##gemv": 4395,
      "abcdefghijklmnopqrstuv": 4396,
      "##_next": 4397,
      "##_num": 4398,
      "##_n_f": 4399,
      "alloc": 4400,
      "input_increment": 4401,
      "simde_x_mm_deinterleave": 4402,
      "##_inv_lift_int": 4403,
      "##opf": 4404,
      "buff_d": 4405,
      "buff_v": 4406,
      "buff_w": 4407,
      "tmpl": 4408,
      "tmpstat": 4409,
      "py_decref": 4410,
      "##ssu": 4411,
      "zero_point": 4412,
      "##heby": 4413,
      "##ursive": 4414,
      "work_id": 4415,
      "##rc_": 4416,
      "splt_": 4417,
      "##var_ps": 4418,
      "##nghijklmn": 4419,
      "name_len": 4420,
      "namespace": 4421,
      "##_dataset_seq": 4422,
      "vali": 4423,
      "encode": 4424,
      "cf_marker_array": 4425,
      "ngx": 4426,
      "__pyx_v_source": 4427,
      "__pyx_v_self": 4428,
      "type_filter": 4429,
      "typedefs": 4430,
      "##ateg": 4431,
      "##_userdata": 4432,
      "##_uset_tests": 4433,
      "rkgm": 4434,
      "rkv_t": 4435,
      "##entry_s": 4436,
      "ngx_htt": 4437,
      "ngx_str_t": 4438,
      "voutghij": 4439,
      "sca": 4440,
      "scratch": 4441,
      "pos_state": 4442,
      "##_fiel": 4443,
      "cind": 4444,
      "##_kers": 4445,
      "check_": 4446,
      "keys": 4447,
      "##_weights": 4448,
      "##klmnghijklmn": 4449,
      "##_lengths": 4450,
      "__ctype": 4451,
      "columns": 4452,
      "newentry": 4453,
      "new_child": 4454,
      "newcols": 4455,
      "tsd": 4456,
      "tsdn": 4457,
      "##serctxt": 4458,
      "comments": 4459,
      "__pyx_v_src_strides": 4460,
      "__pyx_v_src_shape": 4461,
      "hypre_parc": 4462,
      "##_multi_pw_aff": 4463,
      "mupa_p": 4464,
      "acgtno_cycle": 4465,
      "ngx_stream_ph": 4466,
      "edge_lengths": 4467,
      "##_lzcnt": 4468,
      "ukrs": 4469,
      "__pyx_v_dst_strides": 4470,
      "__pyx_v_dst_shape": 4471,
      "hashfile": 4472,
      "iteminfo_": 4473,
      "insert_": 4474,
      "##sr_weights": 4475,
      "__pyx_pybuffernd_mask": 4476,
      "##edge_f": 4477,
      "ncores": 4478,
      "##_z_ij": 4479,
      "sign_z_ij": 4480,
      "max_edge": 4481,
      "classes": 4482,
      "pcrc_": 4483,
      "__pyx_v_dataset": 4484,
      "__pyx_v_suboffsets": 4485,
      "col_start": 4486,
      "col_index": 4487,
      "gtmer": 4488,
      "isl_multi_union_pw_aff_plain_is_equal": 4489,
      "__pyx_temp_scalar": 4490,
      "##q_n_f": 4491,
      "conjx": 4492,
      "conjy": 4493,
      "simde_wasm_i": 4494,
      "vscaledcdef": 4495,
      "atom": 4496,
      "_mm_andnot_": 4497,
      "recv_": 4498,
      "variables": 4499,
      "refs_t": 4500,
      "read_u": 4501,
      "##tings": 4502,
      "##rip": 4503,
      "##_memory": 4504,
      "head_tmpx": 4505,
      "##_strided": 4506,
      "##_strided_to": 4507,
      "##header_t": 4508,
      "diff_buf": 4509,
      "longcode": 4510,
      "long_ver": 4511,
      "##incid": 4512,
      "ucp_proto_c": 4513,
      "bin_loc": 4514,
      "greatchi": 4515,
      "__pyx_v_tmp_int": 4516,
      "test_simde_wasm_f": 4517,
      "_maskz_": 4518,
      "_maskz_madd_epi": 4519,
      "_forecast": 4520,
      "##_param_ptr": 4521,
      "##bug": 4522,
      "vertices": 4523,
      "##gestream": 4524,
      "slices": 4525,
      "##stride_x": 4526,
      "contextid": 4527,
      "cmsevaltonec": 4528,
      "uri_param_ptr": 4529,
      "tail_tmpx": 4530,
      "encoding": 4531,
      "rd_kafka_buf_write_i": 4532,
      "csscal_": 4533,
      "seqid": 4534,
      "##_entries": 4535,
      "__pyx_v_csr_weights": 4536,
      "__pyx_memoryview_obj": 4537,
      "__pyx_memoryview_thread_": 4538,
      "__pyx_memoryview__slice": 4539,
      "adam": 4540,
      "last_dc_": 4541,
      "##sing_rank": 4542,
      "##utexvar_ps": 4543,
      "vbias_hi": 4544,
      "vbias_lo": 4545,
      "sam_sq": 4546,
      "##params": 4547,
      "numex_table": 4548,
      "operands": 4549,
      "test_simde_vcombine_s": 4550,
      "test_simde_vcombine_u": 4551,
      "nabor_tw": 4552,
      "sret": 4553,
      "write_u": 4554,
      "voutput_min_less_zero_point": 4555,
      "gt_str_array_get": 4556,
      "lambda": 4557,
      "degstats": 4558,
      "isl_map_read_from_str": 4559,
      "sparse": 4560,
      "rd_kafka_configentry_s": 4561,
      "a_ri": 4562,
      "b_ri": 4563,
      "##_recursive": 4564,
      "##rypt_": 4565,
      "head_rowsum": 4566,
      "head_rowtmp": 4567,
      "tail_rowsum": 4568,
      "tail_rowtmp": 4569,
      "##_matches": 4570,
      "test_simde_x_mm_deinterleaveeven": 4571,
      "test_simde_x_mm_deinterleaveodd": 4572,
      "##not_edge_f": 4573,
      "ngx_stream_in_addr_t": 4574,
      "complex_float": 4575,
      "complex_double": 4576,
      "acgt_sum_": 4577,
      "rev_inv_lift_int": 4578,
      "hwloc_bitmap": 4579,
      "##axpyv": 4580,
      "fptoui": 4581,
      "favor": 4582,
      "otf_wbuffer": 4583,
      "tp_index": 4584,
      "##hitpos": 4585,
      "multiplier": 4586,
      "_cmsqu": 4587,
      "_permutexvar_ps": 4588,
      "rangeoccs": 4589,
      "language": 4590,
      "coarse_seqid": 4591,
      "vukrs": 4592,
      "diagoffb_j": 4593,
      "lua_push": 4594,
      "perf_status": 4595,
      "_xmlparserctxt": 4596,
      "safe": 4597,
      "san_name": 4598,
      "##ull_tests": 4599,
      "##uffixes": 4600,
      "bli_is_not_edge_f": 4601,
      "nonce": 4602,
      "enums": 4603,
      "grid_relax_point": 4604,
      "hwloc_utils_userdata": 4605,
      "##cipher_sk_type": 4606,
      "dropped": 4607,
      "gtcondenseqblasthitpos": 4608,
      "pivmin": 4609,
      "##qmovun": 4610,
      "##_assign_scalar": 4611,
      "_seq_dataset_seq": 4612,
      "asr_s": 4613,
      "bm_id": 4614,
      "center": 4615,
      "dgammar": 4616,
      "latency": 4617,
      "masters": 4618,
      "missing_rank": 4619,
      "nearest": 4620,
      "nquals": 4621,
      "s_dset": 4622,
      "utils_": 4623,
      "usings": 4624,
      "undiff_buf": 4625,
      "vaghijklmn": 4626,
      "white": 4627,
      "##nbrs": 4628,
      "inctp": 4629,
      "start_xi": 4630,
      "constants": 4631,
      "decisionmap": 4632,
      "replicas": 4633,
      "##uentialdataset": 4634,
      "_copy_strided_to": 4635,
      "abscond": 4636,
      "__pyx_v_memslice": 4637,
      "##uffix_len": 4638,
      "splt_list": 4639,
      "namespaces": 4640,
      "encoded_": 4641,
      "__pyx_v_source_indices": 4642,
      "ngx_http": 4643,
      "voutghijklmnghijklmn": 4644,
      "check_one": 4645,
      "hypre_parcsr": 4646,
      "acgtno_cycles_": 4647,
      "ngx_stream_phase": 4648,
      "##_lzcnt_epi": 4649,
      "gtmergestream": 4650,
      "_mm_andnot_si": 4651,
      "greatchildstate": 4652,
      "__pyx_memoryview_thread_locks": 4653,
      "__pyx_memoryview__slice_assign_scalar": 4654,
      "last_dc_val": 4655,
      "nabor_two": 4656,
      "favormap": 4657,
      "grid_relax_points": 4658,
      "_seq_dataset_sequentialdataset": 4659,
      "_copy_strided_to_strided": 4660,
      "_len": 4661,
      "_end": 4662,
      "_name": 4663,
      "act": 4664,
      "astats": 4665,
      "b_": 4666,
      "ckr": 4667,
      "dd_": 4668,
      "d_cnjg": 4669,
      "final": 4670,
      "gd": 4671,
      "globa": 4672,
      "had_": 4673,
      "ioc": 4674,
      "iov": 4675,
      "iqual": 4676,
      "jp": 4677,
      "kp": 4678,
      "kdim": 4679,
      "kfetch": 4680,
      "layout": 4681,
      "myp": 4682,
      "nt": 4683,
      "nvar": 4684,
      "nfi": 4685,
      "nkey": 4686,
      "op_id": 4687,
      "pend": 4688,
      "pbl": 4689,
      "rf": 4690,
      "sv": 4691,
      "smoother": 4692,
      "sock_": 4693,
      "tcache": 4694,
      "umax": 4695,
      "u_ij": 4696,
      "way": 4697,
      "zopf": 4698,
      "##ault_": 4699,
      "##oo": 4700,
      "##cpuset": 4701,
      "##codes": 4702,
      "##_stat": 4703,
      "##_arg": 4704,
      "##_large": 4705,
      "##_vector": 4706,
      "##_update": 4707,
      "##mtg": 4708,
      "##ux": 4709,
      "##us_tests": 4710,
      "##tup": 4711,
      "##topology": 4712,
      "##eep": 4713,
      "##nu": 4714,
      "##ke": 4715,
      "##kp": 4716,
      "##ra": 4717,
      "##rk": 4718,
      "##bin": 4719,
      "##ict": 4720,
      "##igin": 4721,
      "##sw": 4722,
      "##weep": 4723,
      "##jpeg": 4724,
      "##f_s": 4725,
      "##fun": 4726,
      "##bac": 4727,
      "stack": 4728,
      "##priv": 4729,
      "##lace": 4730,
      "##_part": 4731,
      "condition": 4732,
      "index_to": 4733,
      "cone": 4734,
      "deco": 4735,
      "##_ptrs": 4736,
      "##stor": 4737,
      "##d_ts": 4738,
      "##d_bits": 4739,
      "inc_y": 4740,
      "##non_zero": 4741,
      "##cmpgt_": 4742,
      "##ait": 4743,
      "##ompress_struct": 4744,
      "##desc": 4745,
      "##ail_tests": 4746,
      "this": 4747,
      "##_slice": 4748,
      "##_sweep": 4749,
      "##ote": 4750,
      "request_": 4751,
      "##search": 4752,
      "_code": 4753,
      "##itvinfo": 4754,
      "_mm_cmpgt_": 4755,
      "##_box": 4756,
      "isl_ver": 4757,
      "alph": 4758,
      "alpha_c": 4759,
      "##_init_": 4760,
      "##_initiali": 4761,
      "##option": 4762,
      "group_": 4763,
      "gamma_c": 4764,
      "pydict": 4765,
      "##strtup": 4766,
      "##urv": 4767,
      "host": 4768,
      "worktype": 4769,
      "hwloc_distance": 4770,
      "##_ret": 4771,
      "##_get_": 4772,
      "origin": 4773,
      "##fix_": 4774,
      "row_idx": 4775,
      "entropy": 4776,
      "buf_data": 4777,
      "##ateword": 4778,
      "dimbuf": 4779,
      "find": 4780,
      "rkb": 4781,
      "ngx_cycle": 4782,
      "rd_strtup": 4783,
      "##list_get_": 4784,
      "##_tok": 4785,
      "rd_kafka_acl": 4786,
      "##_find": 4787,
      "##_offd_a": 4788,
      "##_set_si": 4789,
      "##_set_dt": 4790,
      "##_parse": 4791,
      "element": 4792,
      "output_min": 4793,
      "output_zero_point": 4794,
      "tsd_ts": 4795,
      "##aps_t": 4796,
      "##_type_filter": 4797,
      "mupa_": 4798,
      "##_from_": 4799,
      "next_tok": 4800,
      "##icks": 4801,
      "##icator": 4802,
      "isl_basic_map_": 4803,
      "isl_basic_set_": 4804,
      "##its_per": 4805,
      "nbits_per": 4806,
      "##_mult": 4807,
      "ert": 4808,
      "incxi": 4809,
      "##_bufs": 4810,
      "gt_d": 4811,
      "cells": 4812,
      "text_length": 4813,
      "isl_set_is_equal": 4814,
      "func_s": 4815,
      "##biterator": 4816,
      "aws_uri": 4817,
      "aws_byte": 4818,
      "gtces": 4819,
      "iterator": 4820,
      "##copy_": 4821,
      "headers": 4822,
      "vabsx_hi": 4823,
      "vabsx_lo": 4824,
      "stream_write": 4825,
      "isl_sched_edge_is_": 4826,
      "kh_str": 4827,
      "zone_keys": 4828,
      "isl_pw_multi_aff_free": 4829,
      "##buitvinfo": 4830,
      "##_schedule": 4831,
      "proto_init": 4832,
      "__pyx_v_itstruct": 4833,
      "_and_ps": 4834,
      "##_children": 4835,
      "boxman": 4836,
      "scanner": 4837,
      "bli_func_set_dt": 4838,
      "vtkparse_free": 4839,
      "mbedtls_": 4840,
      "_mm_min_epi": 4841,
      "marker_diag": 4842,
      "isc_sock": 4843,
      "srsw": 4844,
      "isl_schedule_constraint": 4845,
      "##blastinfo": 4846,
      "ordinal_ind": 4847,
      "ngx_conf_s": 4848,
      "graph_array_offd": 4849,
      "##cmjpeg": 4850,
      "isl_multi_pw_aff_read_from_str": 4851,
      "cjson": 4852,
      "##_new": 4853,
      "hwloc_bitmap_": 4854,
      "settings": 4855,
      "isl_multi_aff_read_from_str": 4856,
      "simde_vaddd_u": 4857,
      "simde_vaddd_s": 4858,
      "isl_union_set_read_from_str": 4859,
      "simde_vshrd_n_s": 4860,
      "simde_vshrd_n_u": 4861,
      "best_y": 4862,
      "dns_dbiterator": 4863,
      "hypre_box_": 4864,
      "sections": 4865,
      "ucp_proto_select_init_": 4866,
      "##_group_val": 4867,
      "replace": 4868,
      "simde_vzipq": 4869,
      "_offd": 4870,
      "disjoint": 4871,
      "##_buck": 4872,
      "##_intersect": 4873,
      "isl_pw_qpolynomial_fold": 4874,
      "pixel_size": 4875,
      "##aturateword": 4876,
      "cmdcode": 4877,
      "tile_tests": 4878,
      "gtspecresults": 4879,
      "obsoletes": 4880,
      "##_fields": 4881,
      "ucp_proto_caps_t": 4882,
      "_cmsquicks": 4883,
      "ckrinfo": 4884,
      "gdcmjpeg": 4885,
      "had_err": 4886,
      "iocb": 4887,
      "mypart": 4888,
      "nfill": 4889,
      "pblk_t": 4890,
      "sock_stats": 4891,
      "index_to_sym": 4892,
      "request_rec": 4893,
      "_mm_cmpgt_epi": 4894,
      "isl_vertice": 4895,
      "##_initialize": 4896,
      "hwloc_distances_s": 4897,
      "ngx_cycle_s": 4898,
      "rd_strtup_s": 4899,
      "rd_kafka_aclbind": 4900,
      "tsd_tsdn": 4901,
      "nbits_per_group_val": 4902,
      "gtcesblastinfo": 4903,
      "isc_sockaddr": 4904,
      "isl_schedule_constraints_": 4905,
      "ordinal_indicator": 4906,
      "hypre_box_struct": 4907,
      "_cmsquicksaturateword": 4908,
      "\"=": 4909,
      "$[": 4910,
      ",[": 4911,
      "]\"": 4912,
      "_id": 4913,
      "_ctx": 4914,
      "asize": 4915,
      "aap": 4916,
      "a_offset": 4917,
      "asm": 4918,
      "bnd": 4919,
      "bound": 4920,
      "bot": 4921,
      "cptr": 4922,
      "cen": 4923,
      "c_elem": 4924,
      "cdiv": 4925,
      "cmask": 4926,
      "ctmp": 4927,
      "corder": 4928,
      "cheby": 4929,
      "dc": 4930,
      "dli": 4931,
      "dscale": 4932,
      "d_w": 4933,
      "d_inv": 4934,
      "found": 4935,
      "fine": 4936,
      "fbox": 4937,
      "gamm": 4938,
      "gml_": 4939,
      "ids": 4940,
      "imin": 4941,
      "imax": 4942,
      "je": 4943,
      "json": 4944,
      "kdset": 4945,
      "lb": 4946,
      "msize": 4947,
      "model": 4948,
      "mutex": 4949,
      "msclr": 4950,
      "nor": 4951,
      "nact": 4952,
      "n_col": 4953,
      "nodes": 4954,
      "n_iter": 4955,
      "n_parse": 4956,
      "n_buck": 4957,
      "ofmt_": 4958,
      "pd": 4959,
      "pnt": 4960,
      "p_diag_j": 4961,
      "pij": 4962,
      "perf": 4963,
      "page_type": 4964,
      "q_f": 4965,
      "ru": 4966,
      "sec": 4967,
      "self": 4968,
      "ta": 4969,
      "tl": 4970,
      "tc": 4971,
      "tv": 4972,
      "ts_": 4973,
      "t_elem": 4974,
      "t_en": 4975,
      "use": 4976,
      "vin": 4977,
      "v_dim": 4978,
      "w_q": 4979,
      "xp": 4980,
      "x_q": 4981,
      "y_q": 4982,
      "yyb": 4983,
      "zr": 4984,
      "z_q": 4985,
      "z_stream": 4986,
      "}\"": 4987,
      "##adj": 4988,
      "##aults": 4989,
      "##oot": 4990,
      "##ctr": 4991,
      "##c_curve": 4992,
      "##_le": 4993,
      "##_out": 4994,
      "##_log": 4995,
      "##_hpd": 4996,
      "##_last": 4997,
      "##_limit": 4998,
      "##_order": 4999,
      "##mon": 5000,
      "##mrt": 5001,
      "##u_hpd": 5002,
      "##ten": 5003,
      "##es_": 5004,
      "##es_spec": 5005,
      "##xor": 5006,
      "##nan": 5007,
      "##nsec": 5008,
      "##kind": 5009,
      "##pn": 5010,
      "##pq": 5011,
      "##parent": 5012,
      "##yle": 5013,
      "##rr": 5014,
      "##bm": 5015,
      "##bon": 5016,
      "##bias": 5017,
      "##is_": 5018,
      "##ise_": 5019,
      "##ssh": 5020,
      "##dl_": 5021,
      "##domain": 5022,
      "##winvscalv": 5023,
      "##fa": 5024,
      "##fd": 5025,
      "##func": 5026,
      "##z_bytes": 5027,
      "],~{": 5028,
      "##tral_": 5029,
      "##trsv": 5030,
      "##oales": 5031,
      "##lic": 5032,
      "##oadcast": 5033,
      "##etype": 5034,
      "##reg": 5035,
      "##reloc": 5036,
      "##message": 5037,
      "ineq": 5038,
      "instruct": 5039,
      "inbr": 5040,
      "##bles": 5041,
      "get_sample": 5042,
      "##om_tr": 5043,
      "##protocol": 5044,
      "##ords": 5045,
      "##mpfr": 5046,
      "##ative": 5047,
      "##onode": 5048,
      "##atables": 5049,
      "##l_nb": 5050,
      "term": 5051,
      "argtype": 5052,
      "argcount": 5053,
      "argclasses": 5054,
      "##_pur": 5055,
      "##_poll": 5056,
      "##_page_type": 5057,
      "coli": 5058,
      "coef": 5059,
      "codec": 5060,
      "costdiff": 5061,
      "dest_": 5062,
      "subtract": 5063,
      "dict": 5064,
      "digit": 5065,
      "end_object": 5066,
      "##_io": 5067,
      "##_itr": 5068,
      "##sions": 5069,
      "##um_t": 5070,
      "##adds_epi": 5071,
      "__pyx_check": 5072,
      "##d_key": 5073,
      "incw": 5074,
      "inc_a": 5075,
      "inc_w": 5076,
      "inc_e": 5077,
      "include": 5078,
      "##ean": 5079,
      "##ence": 5080,
      "##pute": 5081,
      "##sub_epi": 5082,
      "##s_offset": 5083,
      "##anag": 5084,
      "##connection": 5085,
      "##connect": 5086,
      "thread": 5087,
      "thread_": 5088,
      "__pyx_vtab": 5089,
      "##_setitem": 5090,
      "##_suffixes": 5091,
      "##location": 5092,
      "rebu": 5093,
      "red_bits": 5094,
      "##_tuple": 5095,
      "trj": 5096,
      "trns": 5097,
      "##_coarse": 5098,
      "##ski": 5099,
      "_compress_struct": 5100,
      "##ith": 5101,
      "_mm_xor": 5102,
      "_mm_sub_epi": 5103,
      "__pyx_v_w": 5104,
      "##uff_en": 5105,
      "##_by": 5106,
      "##unreachable": 5107,
      "##ute": 5108,
      "##hitrange": 5109,
      "##_found": 5110,
      "##defaults": 5111,
      "sigr": 5112,
      "##ged_": 5113,
      "##ge_add": 5114,
      "remove": 5115,
      "remote": 5116,
      "##uftab": 5117,
      "fpsr": 5118,
      "alpn": 5119,
      "##_mutex": 5120,
      "niprod": 5121,
      "ellip": 5122,
      "##_inser": 5123,
      "##topic": 5124,
      "##to_float": 5125,
      "grad_": 5126,
      "grad": 5127,
      "landmark": 5128,
      "buff_g": 5129,
      "buffere": 5130,
      "aii": 5131,
      "py_x": 5132,
      "pydefaults": 5133,
      "##p_on": 5134,
      "##vel_nb": 5135,
      "##_dts": 5136,
      "##_delta": 5137,
      "simde_vmul": 5138,
      "simde_vml": 5139,
      "##lename": 5140,
      "##tic_curve": 5141,
      "##_rand": 5142,
      "##recv": 5143,
      "##_data_ptr": 5144,
      "##array_t": 5145,
      "##arrayobject": 5146,
      "##array_desc": 5147,
      "##arraycnt": 5148,
      "##_json": 5149,
      "dns_sign": 5150,
      "dns_diff": 5151,
      "dns_nsec": 5152,
      "dns_unreachable": 5153,
      "__pyx_v_sample": 5154,
      "type_depth": 5155,
      "##ated_key": 5156,
      "compression": 5157,
      "##_aff_tests": 5158,
      "bit_": 5159,
      "cs_dl_": 5160,
      "ngx_module": 5161,
      "ngx_array_t": 5162,
      "post": 5163,
      "rd_list_": 5164,
      "##_to_coarse": 5165,
      "##_offd_i": 5166,
      "vb_zero_point": 5167,
      "##libhar": 5168,
      "##_fibon": 5169,
      "##et_stats": 5170,
      "opd": 5171,
      "ldv": 5172,
      "srcloc": 5173,
      "curve": 5174,
      "curr_": 5175,
      "cur_comp": 5176,
      "##signed_": 5177,
      "##_writ": 5178,
      "unreachable": 5179,
      "send_buf": 5180,
      "##anged": 5181,
      "##code_lookup": 5182,
      "newobj": 5183,
      "newrows": 5184,
      "##pyarrayobject": 5185,
      "hwloc_obj_memory": 5186,
      "##ps_epi": 5187,
      "##ortinfo": 5188,
      "##ains": 5189,
      "hypre_s": 5190,
      "##_idle_connection": 5191,
      "ngx_stream_addr": 5192,
      "edge_table": 5193,
      "##wasattr": 5194,
      "##names": 5195,
      "erl_": 5196,
      "buff_e": 5197,
      "##mooth": 5198,
      "isl_set_copy": 5199,
      "range_limit": 5200,
      "reg_list": 5201,
      "level_nb": 5202,
      "quo_vadis_internal_hwloc_topology": 5203,
      "vexp_bias": 5204,
      "vexph_mask": 5205,
      "##ild_rank": 5206,
      "max_back": 5207,
      "max_symbol": 5208,
      "dst_elt": 5209,
      "dst_bytes": 5210,
      "##ustom_tr": 5211,
      "kernel_": 5212,
      "##copymrt": 5213,
      "apr_array": 5214,
      "apr_poll": 5215,
      "tagged_": 5216,
      "tagpyarrayobject": 5217,
      "vexpw_hi": 5218,
      "vexpw_lo": 5219,
      "_mm_and_ps": 5220,
      "ctable": 5221,
      "_pyarray_desc": 5222,
      "##v_list_t": 5223,
      "##ssl_cipher_sk_type": 5224,
      "pyarray_arr": 5225,
      "kdn": 5226,
      "mcfg": 5227,
      "##_names": 5228,
      "##ight": 5229,
      "seginfo": 5230,
      "nrf": 5231,
      "tokens": 5232,
      "prev_row": 5233,
      "##_check_plain": 5234,
      "vl_ll": 5235,
      "vl_lh": 5236,
      "##_mem_config": 5237,
      "diff_y": 5238,
      "difference": 5239,
      "privat": 5240,
      "vtklibhar": 5241,
      "ucp_proto_perf": 5242,
      "bin_s": 5243,
      "isl_aff_read_from_str": 5244,
      "test_simde_wasm_u": 5245,
      "translated_key": 5246,
      "##tion_key": 5247,
      "vmanth_mask": 5248,
      "##reportinfo": 5249,
      "##lags": 5250,
      "scalable": 5251,
      "phrases": 5252,
      "phuff_en": 5253,
      "chars": 5254,
      "emitter_json": 5255,
      "cmscurve": 5256,
      "defs": 5257,
      "##nssec": 5258,
      "uri_str": 5259,
      "member": 5260,
      "encryp": 5261,
      "_mm_srli_epi": 5262,
      "_and_epi": 5263,
      "myrdata": 5264,
      "##_unsigned_": 5265,
      "##ority": 5266,
      "##arysearch": 5267,
      "current_idle_connection": 5268,
      "##_location": 5269,
      "vtkparse_copy": 5270,
      "factorize_first": 5271,
      "config_plugin": 5272,
      "##checkstring": 5273,
      "blue_bits": 5274,
      "green_bits": 5275,
      "vbias_min": 5276,
      "marker_offd": 5277,
      "rrsig": 5278,
      "sam_hdr": 5279,
      "servers": 5280,
      "cmsvec": 5281,
      "epsilon": 5282,
      "isc_log": 5283,
      "next_out": 5284,
      "location": 5285,
      "quals_": 5286,
      "##_encoder": 5287,
      "##ritten": 5288,
      "##it_bias": 5289,
      "__pyx_buffmt_context": 5290,
      "__pyx_buffmt_stack": 5291,
      "__pyx_buffmt_checkstring": 5292,
      "gt_str_append": 5293,
      "ordinal_suffixes": 5294,
      "vumax": 5295,
      "##wapl": 5296,
      "_mm_cvtps_epi": 5297,
      "commands": 5298,
      "segment_inf": 5299,
      "kms_kv_list_t": 5300,
      "bswapl": 5301,
      "##_decode": 5302,
      "##_newasattr": 5303,
      "##hiftdiag": 5304,
      "settings_array": 5305,
      "##_handler": 5306,
      "templateinfo_": 5307,
      "algorithm_enc": 5308,
      "nflushes": 5309,
      "rte_malloc": 5310,
      "rte_mem_config": 5311,
      "##_opsize": 5312,
      "##tropy_encoder": 5313,
      "##_socket_stats": 5314,
      "##firstcode": 5315,
      "##firstcodes": 5316,
      "dns_dnssec": 5317,
      "ossl_check_const_ssl_cipher_sk_type": 5318,
      "handler": 5319,
      "ihat_offd": 5320,
      "link": 5321,
      "vscale_to_zero": 5322,
      "vscale_to_inf": 5323,
      "test_simde_vfma_n_f": 5324,
      "test_simde_vfmaq_n_f": 5325,
      "vl_hl": 5326,
      "vl_hh": 5327,
      "long_code_list": 5328,
      "long_code_lookup": 5329,
      "buildctx": 5330,
      "buildreloc": 5331,
      "axes_spec": 5332,
      "cnbr_t": 5333,
      "gcd": 5334,
      "nr_block_offset": 5335,
      "##yvaluepair": 5336,
      "##annels": 5337,
      "recv_sf_j": 5338,
      "bli_cntx_get_b": 5339,
      "pyunicode_write": 5340,
      "cvlist": 5341,
      "jpeg_comp": 5342,
      "nparts": 5343,
      "##word_len": 5344,
      "allfirstcodes": 5345,
      "lrintf": 5346,
      "bli_blksz_copy_dt": 5347,
      "ecolptr": 5348,
      "##lidean": 5349,
      "dirflag": 5350,
      "short_code_lookup": 5351,
      "##upport": 5352,
      "##_huff_tbl_ptrs": 5353,
      "print_default_": 5354,
      "isl_pw_aff_read_from_str": 5355,
      "bind_pma": 5356,
      "_shortest_path_fibon": 5357,
      "pyfortranobject_newasattr": 5358,
      "_libssh": 5359,
      "evp": 5360,
      "event_list": 5361,
      "##uclidean": 5362,
      "##f_md": 5363,
      "##dscal_": 5364,
      "dictionary_start": 5365,
      "needswap": 5366,
      "relax_w": 5367,
      "tried": 5368,
      "##ssuer": 5369,
      "##ategory": 5370,
      "scamac": 5371,
      "atomic": 5372,
      "sparsegraph": 5373,
      "otf_wbuffer_write": 5374,
      "language_tag": 5375,
      "safe_status": 5376,
      "##qmovun_s": 5377,
      "mastersok": 5378,
      "ntpwgts": 5379,
      "pend_pur": 5380,
      "##backs": 5381,
      "##private": 5382,
      "pydict_setitem": 5383,
      "##_from_basic": 5384,
      "stream_write_bit": 5385,
      "isl_sched_edge_is_condition": 5386,
      "ucp_proto_select_init_protocol": 5387,
      "gtspecresultsreportinfo": 5388,
      "iocb_ret": 5389,
      "rd_kafka_aclbinding_s": 5390,
      "]\",": 5391,
      "aapos": 5392,
      "both": 5393,
      "central_": 5394,
      "fine_to_coarse": 5395,
      "gammatables": 5396,
      "nactive": 5397,
      "n_parsed_extension": 5398,
      "n_buckets": 5399,
      "ofmt_ali": 5400,
      "pijbm": 5401,
      "perf_data": 5402,
      "page_types": 5403,
      "t_enum_t": 5404,
      "vinit_bias": 5405,
      "yybot": 5406,
      "zrot_": 5407,
      "z_stream_s": 5408,
      "}\"(": 5409,
      "##u_hpdf_md": 5410,
      "##funcs": 5411,
      "##oalesce": 5412,
      "instruction": 5413,
      "argtypes": 5414,
      "argcounts": 5415,
      "##_page_type_s": 5416,
      "subtract_domain_tests": 5417,
      "__pyx_check_strides": 5418,
      "##connected": 5419,
      "rebuild_rank": 5420,
      "_mm_xor_ps": 5421,
      "sigrr": 5422,
      "##ge_address": 5423,
      "elliptic_curve": 5424,
      "##to_float_test": 5425,
      "grad_ij": 5426,
      "buffered_data": 5427,
      "dns_signing": 5428,
      "dns_difftuple": 5429,
      "ngx_module_s": 5430,
      "cur_comp_info": 5431,
      "ngx_stream_addr_conf_t": 5432,
      "level_nbobjects": 5433,
      "##ustom_track": 5434,
      "tagpyarrayobject_fields": 5435,
      "_pyarray_descr": 5436,
      "pyarray_arrfuncs": 5437,
      "##_check_plain_equal": 5438,
      "vtklibharu_hpdf_md": 5439,
      "phuff_entropy_encoder": 5440,
      "emitter_json_object": 5441,
      "cmscurvesegment": 5442,
      "encryption_key": 5443,
      "##_unsigned_long": 5444,
      "config_plugin_value": 5445,
      "__pyx_buffmt_stackelem": 5446,
      "segment_infonode": 5447,
      "rte_malloc_socket_stats": 5448,
      "dns_dnsseckey": 5449,
      "axes_specs": 5450,
      "print_default_number": 5451,
      "_shortest_path_fibonacc": 5452,
      "pend_purge_address": 5453,
      "pydict_setitemstring": 5454,
      "ucp_proto_select_init_protocols_t": 5455,
      "central_header": 5456,
      "rebuild_ranks": 5457,
      "_tr": 5458,
      "__f": 5459,
      "as": 5460,
      "action": 5461,
      "aux": 5462,
      "bt": 5463,
      "b_t": 5464,
      "bytes": 5465,
      "ca": 5466,
      "c_": 5467,
      "cid": 5468,
      "cer": 5469,
      "can": 5470,
      "c_b": 5471,
      "cdef": 5472,
      "cand": 5473,
      "cwgt": 5474,
      "clip": 5475,
      "dsum": 5476,
      "eval": 5477,
      "fver": 5478,
      "fci": 5479,
      "gm": 5480,
      "ghij": 5481,
      "giv": 5482,
      "h_": 5483,
      "hp": 5484,
      "hex": 5485,
      "il": 5486,
      "ihi": 5487,
      "ilen": 5488,
      "jv": 5489,
      "kb": 5490,
      "ks": 5491,
      "ll": 5492,
      "lut": 5493,
      "mark": 5494,
      "nj": 5495,
      "ndi": 5496,
      "nvals": 5497,
      "n_div": 5498,
      "oi": 5499,
      "padd": 5500,
      "plen": 5501,
      "pattern": 5502,
      "qnum": 5503,
      "ri": 5504,
      "rs": 5505,
      "r_offd_j": 5506,
      "rtmp": 5507,
      "so": 5508,
      "sy": 5509,
      "sz": 5510,
      "sla": 5511,
      "sol": 5512,
      "source": 5513,
      "suffix_len": 5514,
      "ty": 5515,
      "user": 5516,
      "vwt": 5517,
      "vx_hi": 5518,
      "vx_lo": 5519,
      "x_l": 5520,
      "zmgr": 5521,
      "##aidx": 5522,
      "##ads": 5523,
      "##lli": 5524,
      "##lat": 5525,
      "##lust": 5526,
      "##ome": 5527,
      "##oid": 5528,
      "##cd": 5529,
      "##cst": 5530,
      "##_ai": 5531,
      "##_ll": 5532,
      "##_up": 5533,
      "##_ed": 5534,
      "##_end": 5535,
      "##_dst": 5536,
      "##_edge": 5537,
      "##_state": 5538,
      "##mn": 5539,
      "##mod": 5540,
      "##umm": 5541,
      "##uce": 5542,
      "##uword": 5543,
      "##tex": 5544,
      "##tag": 5545,
      "##ep_id": 5546,
      "##xed": 5547,
      "##nchr": 5548,
      "##ki": 5549,
      "##pre": 5550,
      "##p_curve": 5551,
      "##rcdef": 5552,
      "##ram": 5553,
      "##rap": 5554,
      "##gain": 5555,
      "##i_ex": 5556,
      "##iority": 5557,
      "##hmac": 5558,
      "##sa": 5559,
      "##sp": 5560,
      "##fast": 5561,
      "dbentry": 5562,
      "##lign": 5563,
      "##lient": 5564,
      "##reads": 5565,
      "##men": 5566,
      "flow": 5567,
      "inp": 5568,
      "inode": 5569,
      "infl": 5570,
      "step_id": 5571,
      "##ntity": 5572,
      "##exact": 5573,
      "##exodu": 5574,
      "##omon": 5575,
      "##efloat": 5576,
      "##idge": 5577,
      "##mple": 5578,
      "volat": 5579,
      "##ated": 5580,
      "##atespace": 5581,
      "##onize": 5582,
      "##only": 5583,
      "temp_code": 5584,
      "##_pau": 5585,
      "extra": 5586,
      "exoid": 5587,
      "##t_t": 5588,
      "##sii_ex": 5589,
      "dimen": 5590,
      "conn": 5591,
      "##resse": 5592,
      "##_if": 5593,
      "__pyx_f_": 5594,
      "##stuv": 5595,
      "##d_set": 5596,
      "##d_offset": 5597,
      "##d_limit": 5598,
      "##st_array": 5599,
      "##st_sig": 5600,
      "##st_non_zero": 5601,
      "##ener": 5602,
      "##enum": 5603,
      "##ensor": 5604,
      "##olomon": 5605,
      "##s_htt": 5606,
      "##inode": 5607,
      "##och": 5608,
      "##dest_sig": 5609,
      "##ang": 5610,
      "th_id": 5611,
      "threadinfo": 5612,
      "##_sgn": 5613,
      "##_sse": 5614,
      "##_source": 5615,
      "##_sstatespace": 5616,
      "##_support": 5617,
      "newp": 5618,
      "vindex": 5619,
      "visit": 5620,
      "_loadu_epi": 5621,
      "##link": 5622,
      "##_tol": 5623,
      "##_top": 5624,
      "##_tile": 5625,
      "##_tensor": 5626,
      "##_cop": 5627,
      "##_cstatespace": 5628,
      "shast": 5629,
      "##mult_": 5630,
      "_ch": 5631,
      "##ached": 5632,
      "abopq": 5633,
      "__pyx_v_rows": 5634,
      "__pyx_v_dest_sig": 5635,
      "##_b_loc": 5636,
      "##new": 5637,
      "##_fail_tests": 5638,
      "##_dis": 5639,
      "_sra": 5640,
      "##ecur": 5641,
      "##ecp_curve": 5642,
      "remain": 5643,
      "remainder": 5644,
      "##_adj": 5645,
      "##_aes_": 5646,
      "##_n_s": 5647,
      "##ions_": 5648,
      "nimtg": 5649,
      "higain": 5650,
      "##opul": 5651,
      "pylist": 5652,
      "py_type": 5653,
      "##view_set": 5654,
      "##p_hash": 5655,
      "##_delete": 5656,
      "##lenode": 5657,
      "##lengths": 5658,
      "##_ran": 5659,
      "##_rule": 5660,
      "##channels": 5661,
      "##_gcd": 5662,
      "vals": 5663,
      "va_multiplier": 5664,
      "memcmp": 5665,
      "##_receive": 5666,
      "##_reeds": 5667,
      "cf_marker_x": 5668,
      "dns_key": 5669,
      "##al_validity": 5670,
      "##ed_inc": 5671,
      "set_check_equal": 5672,
      "##ate_st": 5673,
      "dimids": 5674,
      "compresse": 5675,
      "##_uv": 5676,
      "##_ukrs": 5677,
      "file": 5678,
      "files": 5679,
      "fixed": 5680,
      "##s_test_": 5681,
      "##ogram": 5682,
      "node_stream": 5683,
      "##er_st": 5684,
      "voutghijklmn": 5685,
      "vidx_l": 5686,
      "vidx_hi": 5687,
      "vidx_lo": 5688,
      "vidx_ll": 5689,
      "vb_multiplier": 5690,
      "vshift": 5691,
      "_hash": 5692,
      "op_fp": 5693,
      "##k_alg": 5694,
      "curpos": 5695,
      "##ernal": 5696,
      "##ashed": 5697,
      "keydata": 5698,
      "key_len": 5699,
      "##_starts": 5700,
      "__mpfr": 5701,
      "colour": 5702,
      "##_huff_code": 5703,
      "##_has_": 5704,
      "##_hull_tests": 5705,
      "##_hoo": 5706,
      "newi": 5707,
      "new_y": 5708,
      "new_acl": 5709,
      "output_pointer": 5710,
      "inputoffset": 5711,
      "offd_offset": 5712,
      "_mm_slli": 5713,
      "##thresh": 5714,
      "hypre_rand": 5715,
      "##_multi_support": 5716,
      "isl_multi_val": 5717,
      "##post": 5718,
      "block_ptrs": 5719,
      "bset_j": 5720,
      "big_i": 5721,
      "common": 5722,
      "gt_c": 5723,
      "hash_d": 5724,
      "##_coincid": 5725,
      "func_id": 5726,
      "func_fp": 5727,
      "rangesize": 5728,
      "cram_slice": 5729,
      "code_len": 5730,
      "__pyx_pybuffernd_arr": 5731,
      "##encrypt_": 5732,
      "icig": 5733,
      "##amples": 5734,
      "##_priv": 5735,
      "simde_vshr_n_s": 5736,
      "frpos": 5737,
      "ncached": 5738,
      "##_zstatespace": 5739,
      "signing": 5740,
      "comm_pkg_ff": 5741,
      "max_y": 5742,
      "max_distance": 5743,
      "##_sha": 5744,
      "##cost": 5745,
      "gtl": 5746,
      "gtfirstcode": 5747,
      "pw_aff": 5748,
      "##ward_limit": 5749,
      "##d_tests": 5750,
      "_to_bits": 5751,
      "pma_i": 5752,
      "malloc_mutex": 5753,
      "is_di": 5754,
      "##ality": 5755,
      "##ongoc": 5756,
      "diag_offset": 5757,
      "kdm": 5758,
      "##c_idx": 5759,
      "##ms_buff": 5760,
      "itable": 5761,
      "segments": 5762,
      "token_array": 5763,
      "prev_ix": 5764,
      "diff_uv": 5765,
      "bt_stream": 5766,
      "vtkexodu": 5767,
      "long_bits": 5768,
      "kh_ref": 5769,
      "_hpdf_encrypt_": 5770,
      "locked_inc": 5771,
      "zip_hash": 5772,
      "##cket": 5773,
      "blkszs": 5774,
      "blksz_s": 5775,
      "isl_union_map_is_equal": 5776,
      "invlab": 5777,
      "##_group": 5778,
      "enc_id": 5779,
      "encseq": 5780,
      "##_chars": 5781,
      "myrinfo": 5782,
      "z_ij_update": 5783,
      "recv_procs": 5784,
      "csol": 5785,
      "##sig_alg": 5786,
      "grids_offset": 5787,
      "vtkparse_fre": 5788,
      "vtkparse_cop": 5789,
      "##_prefix_": 5790,
      "##_per_group": 5791,
      "marker_ff": 5792,
      "samview_set": 5793,
      "##duplic": 5794,
      "numex_rule": 5795,
      "_representation_dst": 5796,
      "_representation_sstatespace": 5797,
      "_representation_cstatespace": 5798,
      "_representation_zstatespace": 5799,
      "##chars": 5800,
      "__gmpz_div": 5801,
      "__pyx_v_dij": 5802,
      "__pyx_v_dist_array": 5803,
      "isl_seq_la": 5804,
      "_job": 5805,
      "modulenode": 5806,
      "sortables": 5807,
      "grib_decode": 5808,
      "grib_multi_support": 5809,
      "isl_sioimath_set_si": 5810,
      "isl_sioimath_sgn": 5811,
      "##vectordestroy": 5812,
      "isl_multi_pw_aff_free": 5813,
      "libxsmm_dnn_tensor": 5814,
      "width": 5815,
      "__pyx_t_float_complex_from_parts": 5816,
      "__pyx_t_double_complex_from_parts": 5817,
      "query": 5818,
      "exr_attr_string_vector": 5819,
      "##_merge": 5820,
      "faidx": 5821,
      "##sm_blksz": 5822,
      "_permute": 5823,
      "positions": 5824,
      "rangeocc_idx": 5825,
      "dst_key_alg": 5826,
      "languages": 5827,
      "ossl_check_const_x": 5828,
      "sections_": 5829,
      "isl_val_read_from_str": 5830,
      "test_simde_mm_maskz": 5831,
      "rd_kafka_msg_s": 5832,
      "ncjlist": 5833,
      "ncjson": 5834,
      "bli_cntx_get_blksz": 5835,
      "backwardmatch": 5836,
      "brotli_min": 5837,
      "klmn": 5838,
      "isl_poly_is_": 5839,
      "isl_poly_rec": 5840,
      "vidx_hl": 5841,
      "vidx_hh": 5842,
      "redset_r": 5843,
      "redset_reeds": 5844,
      "kcapi_handle": 5845,
      "kcapi_ai": 5846,
      "ringbuffer_mask": 5847,
      "_unsy": 5848,
      "dlistelem": 5849,
      "oimtg": 5850,
      "nstashed": 5851,
      "##_peer": 5852,
      "received_": 5853,
      "_sup_blksz": 5854,
      "histogram": 5855,
      "libmetis__rpq": 5856,
      "bszids": 5857,
      "jose_hoo": 5858,
      "##process": 5859,
      "bwtseq": 5860,
      "##_force": 5861,
      "valid_": 5862,
      "__ctype_b_loc": 5863,
      "hashfileitem": 5864,
      "##ript": 5865,
      "cmsevaltonecurv": 5866,
      "act_q": 5867,
      "kpid": 5868,
      "zopflin": 5869,
      "##_argv": 5870,
      "##fun_entry": 5871,
      "alphai": 5872,
      "##options": 5873,
      "##list_get_at": 5874,
      "aws_byte_buf": 5875,
      "##buitvinfo_spmsk": 5876,
      "vtkparse_freevalue": 5877,
      "mbedtls_ecp_curve": 5878,
      "srswtab": 5879,
      "dns_dbiterator_pau": 5880,
      "isl_vertices_test_": 5881,
      "bndind": 5882,
      "norms_buff": 5883,
      "tls_id": 5884,
      "##anager": 5885,
      "##_insert_": 5886,
      "curr_val": 5887,
      "erl_fun_entry": 5888,
      "max_backward_limit": 5889,
      "bli_cntx_get_bmult_": 5890,
      "evp_aes_": 5891,
      "##ustom_tracks": 5892,
      "_shortest_path_fibonaccinode": 5893,
      "_trsm_blksz": 5894,
      "__faidx": 5895,
      "auxadj": 5896,
      "clip_sse": 5897,
      "luttable": 5898,
      "nvals_per_group": 5899,
      "oimattr": 5900,
      "padding": 5901,
      "##_edges": 5902,
      "##nchronize": 5903,
      "##rcdefstuv": 5904,
      "##hmac_sha": 5905,
      "inflate": 5906,
      "##idge_": 5907,
      "volatile": 5908,
      "temp_code_list": 5909,
      "##s_http_": 5910,
      "vindex_mask": 5911,
      "visited": 5912,
      "##_toppar": 5913,
      "shastate_st": 5914,
      "abopqrcdefstuv": 5915,
      "_sra_epi": 5916,
      "pylistobject": 5917,
      "##_received": 5918,
      "dns_keyfetch": 5919,
      "node_streams": 5920,
      "vidx_lh": 5921,
      "_hash_ctx": 5922,
      "__mpfr_struct": 5923,
      "_mm_slli_pi": 5924,
      "vtkexodusii_ex": 5925,
      "kh_refs_s": 5926,
      "_hpdf_encrypt_rec": 5927,
      "locked_inc_u": 5928,
      "vtkparse_copyvalue": 5929,
      "samview_settings": 5930,
      "##duplicate": 5931,
      "_representation_dstatespace": 5932,
      "isl_seq_last_non_zero": 5933,
      "grib_decode_unsigned_long": 5934,
      "exr_attr_string_vector_t": 5935,
      "_permutevar": 5936,
      "redset_reedsolomon": 5937,
      "kcapi_aio": 5938,
      "_unsynchronize": 5939,
      "jose_hook_alg": 5940,
      "cmsevaltonecurvefloat": 5941,
      "mbedtls_ecp_curve_info": 5942,
      "dns_dbiterator_pause": 5943,
      "isl_vertices_test_data": 5944,
      "evp_aes_hmac_sha": 5945,
      "__faidx_t": 5946,
      "_unsynchronized": 5947,
      "([": 5948,
      "_dd": 5949,
      "_mp": 5950,
      "_min": 5951,
      "__k": 5952,
      "_addr": 5953,
      "_enc": 5954,
      "_long": 5955,
      "_sin": 5956,
      "aa_": 5957,
      "a_element": 5958,
      "a_cast": 5959,
      "bc": 5960,
      "bx": 5961,
      "bx_": 5962,
      "b_element": 5963,
      "batch": 5964,
      "bases": 5965,
      "b_cast": 5966,
      "cx": 5967,
      "cw": 5968,
      "ces": 5969,
      "cap": 5970,
      "cgraph": 5971,
      "cctx": 5972,
      "cread": 5973,
      "cpos": 5974,
      "c_cast": 5975,
      "cconver": 5976,
      "category": 5977,
      "coalesce": 5978,
      "custom_tracks": 5979,
      "ds": 5980,
      "dd": 5981,
      "dw": 5982,
      "dom": 5983,
      "d_i": 5984,
      "dual": 5985,
      "fvt": 5986,
      "flist": 5987,
      "flip": 5988,
      "gn": 5989,
      "gray": 5990,
      "hamm": 5991,
      "has": 5992,
      "idec": 5993,
      "ilo": 5994,
      "ibuf": 5995,
      "is_re": 5996,
      "ibl": 5997,
      "jin": 5998,
      "jacc": 5999,
      "jcm": 6000,
      "km": 6001,
      "kf": 6002,
      "ksum": 6003,
      "krow": 6004,
      "k_id": 6005,
      "lg": 6006,
      "lex": 6007,
      "lval": 6008,
      "lsub": 6009,
      "lead": 6010,
      "lentry": 6011,
      "llr": 6012,
      "mm": 6013,
      "me": 6014,
      "midx": 6015,
      "mod": 6016,
      "mpi": 6017,
      "mctx": 6018,
      "msr": 6019,
      "memp": 6020,
      "mpos": 6021,
      "m_iter": 6022,
      "method": 6023,
      "m_left": 6024,
      "mtopic": 6025,
      "nw": 6026,
      "n_c": 6027,
      "nit": 6028,
      "npy": 6029,
      "nbase": 6030,
      "n_row": 6031,
      "n_sh": 6032,
      "nong": 6033,
      "npos": 6034,
      "nmemb": 6035,
      "n_result": 6036,
      "n_left": 6037,
      "native": 6038,
      "ofmt": 6039,
      "onbrs": 6040,
      "pq": 6041,
      "p_i": 6042,
      "pvt": 6043,
      "ptemp": 6044,
      "pkey": 6045,
      "pad": 6046,
      "qp": 6047,
      "qname": 6048,
      "rm": 6049,
      "ran": 6050,
      "rng": 6051,
      "rseq": 6052,
      "su": 6053,
      "sx": 6054,
      "sup": 6055,
      "sing": 6056,
      "sand": 6057,
      "s_z": 6058,
      "squ": 6059,
      "slab": 6060,
      "s_addr": 6061,
      "s_offd_i": 6062,
      "samples": 6063,
      "tn": 6064,
      "tg": 6065,
      "tre": 6066,
      "tp_": 6067,
      "ub": 6068,
      "us": 6069,
      "ulength": 6070,
      "ukind": 6071,
      "ww": 6072,
      "wss": 6073,
      "w_sum": 6074,
      "word": 6075,
      "weigh": 6076,
      "wwt": 6077,
      "w_remainder": 6078,
      "wait": 6079,
      "written": 6080,
      "y_remainder": 6081,
      "z_remainder": 6082,
      "zcopy_": 6083,
      "zdscal_": 6084,
      "##ol_s": 6085,
      "##cc": 6086,
      "##cg": 6087,
      "##cb": 6088,
      "##c_f": 6089,
      "##cer_": 6090,
      "##_mp": 6091,
      "##_neg": 6092,
      "##_rel": 6093,
      "##_vals": 6094,
      "##_extension": 6095,
      "##_header_t": 6096,
      "##mt": 6097,
      "##mle": 6098,
      "##mize": 6099,
      "##modu": 6100,
      "##ut_": 6101,
      "##uage": 6102,
      "##tmle": 6103,
      "##eyvaluepair": 6104,
      "##xi": 6105,
      "##xel": 6106,
      "##next": 6107,
      "##nson": 6108,
      "##kn": 6109,
      "##kow": 6110,
      "##perm": 6111,
      "##patch": 6112,
      "##path": 6113,
      "##ybr": 6114,
      "##v_epi": 6115,
      "##vial": 6116,
      "##rp": 6117,
      "##rv": 6118,
      "##r_begin": 6119,
      "##go": 6120,
      "##geta": 6121,
      "##gree": 6122,
      "##globa": 6123,
      "##bor": 6124,
      "##but": 6125,
      "##ima": 6126,
      "##ip_": 6127,
      "##iables": 6128,
      "##i_byte": 6129,
      "##i_mp": 6130,
      "##hou": 6131,
      "##hnson": 6132,
      "##sern": 6133,
      "##sz_bytes": 6134,
      "##shiftdiag": 6135,
      "##dt": 6136,
      "##d_ij": 6137,
      "##delta": 6138,
      "##wd_lift_int": 6139,
      "##with": 6140,
      "##jun": 6141,
      "##factor": 6142,
      "##qd": 6143,
      "##q_element": 6144,
      "##zkalmansmoother": 6145,
      "num_entry": 6146,
      "num_var": 6147,
      "num_bytes": 6148,
      "num_matches": 6149,
      "num_ran": 6150,
      "db_argv": 6151,
      "##gnore": 6152,
      "##bal": 6153,
      "##nd_ptr": 6154,
      "##lex_": 6155,
      "##le_dis": 6156,
      "##al_index": 6157,
      "##reat": 6158,
      "arr": 6159,
      "arch": 6160,
      "archi": 6161,
      "fla_": 6162,
      "float_to": 6163,
      "##idx_st": 6164,
      "insc": 6165,
      "inverse": 6166,
      "st_j": 6167,
      "style": 6168,
      "##ntype": 6169,
      "idxstride_x": 6170,
      "##expr": 6171,
      "##elements": 6172,
      "##extent": 6173,
      "##or_de": 6174,
      "##or_ver": 6175,
      "##orted_": 6176,
      "##atio": 6177,
      "indx": 6178,
      "indeg": 6179,
      "##data_ptr": 6180,
      "metaclass": 6181,
      "list_": 6182,
      "live": 6183,
      "##lance": 6184,
      "##_power_": 6185,
      "##_pattern": 6186,
      "##_popul": 6187,
      "##_plex_": 6188,
      "##ards": 6189,
      "##ard_": 6190,
      "cosi": 6191,
      "cost_": 6192,
      "strchr": 6193,
      "##t_ex": 6194,
      "##t_l_": 6195,
      "##t_tests": 6196,
      "starttime": 6197,
      "denom": 6198,
      "index_initialize": 6199,
      "index_data_ptr": 6200,
      "structc": 6201,
      "##sible": 6202,
      "##sizes": 6203,
      "brcast_": 6204,
      "##dsym": 6205,
      "subtra": 6206,
      "prelin": 6207,
      "precond": 6208,
      "disk": 6209,
      "digraph": 6210,
      "digest": 6211,
      "##_ine": 6212,
      "##_isl_": 6213,
      "##_issuer": 6214,
      "##erla": 6215,
      "##erclasses": 6216,
      "iflags": 6217,
      "##d_op": 6218,
      "##d_alg": 6219,
      "inc_f": 6220,
      "inc_g": 6221,
      "##non_t": 6222,
      "##env": 6223,
      "##enq": 6224,
      "##ename": 6225,
      "##old_": 6226,
      "##s_get": 6227,
      "##s_ok": 6228,
      "##s_get_": 6229,
      "##inver": 6230,
      "##dest": 6231,
      "##ansi": 6232,
      "##annel_": 6233,
      "##ancer_": 6234,
      "##config": 6235,
      "threads": 6236,
      "thr_begin": 6237,
      "__pyx_v_t": 6238,
      "__pyx_v_count": 6239,
      "__pyx_v_co": 6240,
      "##_nonzero": 6241,
      "##_ssl_": 6242,
      "##_side": 6243,
      "##_sep": 6244,
      "##_swap": 6245,
      "##_skalmansmoother": 6246,
      "##_srv": 6247,
      "##sq_": 6248,
      "##notify": 6249,
      "sum_c": 6250,
      "req": 6251,
      "rect": 6252,
      "restr": 6253,
      "##uend": 6254,
      "##elem_get": 6255,
      "triv": 6256,
      "##seh": 6257,
      "##send": 6258,
      "##eline": 6259,
      "##_cpu": 6260,
      "##_cst": 6261,
      "##_ckalmansmoother": 6262,
      "##_creat": 6263,
      "##decref": 6264,
      "_cdot": 6265,
      "##acka": 6266,
      "##ites": 6267,
      "_mm_adds_epi": 6268,
      "__pyx_v_val": 6269,
      "__pyx_v_ne": 6270,
      "__pyx_v_neg": 6271,
      "__pyx_v_x_i": 6272,
      "__pyx_v_starts": 6273,
      "__pyx_v_buff": 6274,
      "__pyx_v_bin": 6275,
      "__pyx_v_d_ij": 6276,
      "isl_tri": 6277,
      "isl_tab": 6278,
      "__pyx_v_ito": 6279,
      "##_fwd_lift_int": 6280,
      "sim": 6281,
      "outfile": 6282,
      "outdeg": 6283,
      "_sdot": 6284,
      "##ge_power_": 6285,
      "##gtab": 6286,
      "##odeinfo": 6287,
      "##_ma_tests": 6288,
      "##_mup": 6289,
      "##_md_alg": 6290,
      "input_zero_point": 6291,
      "##scf": 6292,
      "##s_align": 6293,
      "prv": 6294,
      "prov": 6295,
      "bmeanr_": 6296,
      "bmeanr_ptr": 6297,
      "nimattr": 6298,
      "##emv": 6299,
      "elmt": 6300,
      "hitrange": 6301,
      "alpha_bits": 6302,
      "##_inward": 6303,
      "##shev": 6304,
      "##agate": 6305,
      "expvalue": 6306,
      "##operand": 6307,
      "vpp": 6308,
      "grow": 6309,
      "buff_f": 6310,
      "buff_u": 6311,
      "tmp_map": 6312,
      "ofs": 6313,
      "data_bufs": 6314,
      "##ssages": 6315,
      "_fmsub_ps": 6316,
      "##vec_starts": 6317,
      "##hend": 6318,
      "##lob": 6319,
      "##urbo": 6320,
      "##upma_tests": 6321,
      "resource": 6322,
      "##_dof": 6323,
      "##_dkalmansmoother": 6324,
      "##ldv_epi": 6325,
      "simde_vfma": 6326,
      "##_beg": 6327,
      "dbetar_": 6328,
      "dbetar_ptr": 6329,
      "##nguage": 6330,
      "##timize": 6331,
      "make": 6332,
      "##amount": 6333,
      "##_rbuf": 6334,
      "##_ratio": 6335,
      "##_getitem": 6336,
      "##_g_tab": 6337,
      "##buf_s": 6338,
      "brstdr_": 6339,
      "brstdr_ptr": 6340,
      "val_bin_tests": 6341,
      "##find": 6342,
      "row_de": 6343,
      "##_request_": 6344,
      "##_reqd": 6345,
      "env_": 6346,
      "enc_": 6347,
      "envs": 6348,
      "spng_sub": 6349,
      "internal": 6350,
      "dns_notify": 6351,
      "##listelem_get": 6352,
      "buf_writ": 6353,
      "##ate_userdata": 6354,
      "test_simde_x_mm": 6355,
      "##_use": 6356,
      "##_post": 6357,
      "##_pool_": 6358,
      "##_pool_s": 6359,
      "rkt_": 6360,
      "##headers": 6361,
      "node_seq": 6362,
      "##ective": 6363,
      "##acent": 6364,
      "##tribut": 6365,
      "##hed_map": 6366,
      "##er_key": 6367,
      "##er_zkalmansmoother": 6368,
      "lens": 6369,
      "valueinfo_": 6370,
      "ngx_buf_s": 6371,
      "_mask_and": 6372,
      "scl": 6373,
      "score": 6374,
      "sc_s": 6375,
      "sched_map": 6376,
      "pos_spec": 6377,
      "pos_align": 6378,
      "tvarr_ptr": 6379,
      "##list_struct": 6380,
      "##_to_str": 6381,
      "##_color_de": 6382,
      "ompi_mp": 6383,
      "vr_dim": 6384,
      "vbghijklmn": 6385,
      "vbghijklmnopqrstuv": 6386,
      "vecstride_x": 6387,
      "##are_side": 6388,
      "__pyx_v_j_source": 6389,
      "_htmle": 6390,
      "opts": 6391,
      "opt_tests": 6392,
      "optimize": 6393,
      "##_keyvaluepair": 6394,
      "##_point_array": 6395,
      "vzero_point": 6396,
      "##scale_bits": 6397,
      "##_map_array": 6398,
      "##_offd_list": 6399,
      "##_free_object": 6400,
      "##_free_recursive": 6401,
      "ldc": 6402,
      "src_infos": 6403,
      "curchar": 6404,
      "changed": 6405,
      "_mm_load_si": 6406,
      "rank_key": 6407,
      "##matched": 6408,
      "keydataset": 6409,
      "keyword_len": 6410,
      "keytag": 6411,
      "simde_mm_mask": 6412,
      "simde_mm_h": 6413,
      "##_wrap": 6414,
      "##us_ma_tests": 6415,
      "unlink": 6416,
      "##overla": 6417,
      "output_max_less_zero_point": 6418,
      "output_only": 6419,
      "colptr": 6420,
      "column": 6421,
      "new_fp": 6422,
      "new_key": 6423,
      "newtopology": 6424,
      "ivs": 6425,
      "##noise_": 6426,
      "##_connect": 6427,
      "##group": 6428,
      "##stream_t": 6429,
      "off_b": 6430,
      "count_tmp": 6431,
      "##_offsets": 6432,
      "##lnum": 6433,
      "hypre_free": 6434,
      "hypre_bin": 6435,
      "##nodeset": 6436,
      "##_from_md_alg": 6437,
      "next_code": 6438,
      "##ordinal": 6439,
      "##ells": 6440,
      "##_buffer_t": 6441,
      "mupa_i": 6442,
      "mupa_bin_tests": 6443,
      "mupa_set_tests": 6444,
      "mupa_uset_tests": 6445,
      "mupa_ma_tests": 6446,
      "##attr_s": 6447,
      "nbytes": 6448,
      "isl_union_pw_aff": 6449,
      "ij_begin": 6450,
      "ngx_stream_up": 6451,
      "offset_size": 6452,
      "quant": 6453,
      "##_lp": 6454,
      "##_lp_on": 6455,
      "##_getnoise_": 6456,
      "rd_kafka_topic_partition_list_": 6457,
      "minuend": 6458,
      "min_beg": 6459,
      "##ersuite": 6460,
      "bset_i": 6461,
      "big_j": 6462,
      "gt_match": 6463,
      "content": 6464,
      "contains": 6465,
      "clar": 6466,
      "hashtable": 6467,
      "##buf_ctx": 6468,
      "cram_map": 6469,
      "cram_block": 6470,
      "error": 6471,
      "bli_pool_": 6472,
      "codes": 6473,
      "vmagic_bi": 6474,
      "##aux": 6475,
      "##_other": 6476,
      "quo_vadis_internal_hwloc_obj": 6477,
      "##ined_": 6478,
      "vsignx_hi": 6479,
      "vsignx_lo": 6480,
      "##_prtn": 6481,
      "front": 6482,
      "ncid": 6483,
      "##ildsym": 6484,
      "upsilon_c": 6485,
      "##_size_t": 6486,
      "max_end": 6487,
      "max_length": 6488,
      "max_non_t": 6489,
      "classq_": 6490,
      "_ut_l_": 6491,
      "pcre": 6492,
      "ven_hi": 6493,
      "ven_lo": 6494,
      "col_map": 6495,
      "kvpair": 6496,
      "kvnext": 6497,
      "r_val": 6498,
      "umap_bin_tests": 6499,
      "##_shldv_epi": 6500,
      "##s_request_": 6501,
      "##lengths_": 6502,
      "paramscurve": 6503,
      "aws_h": 6504,
      "gtarray": 6505,
      "gtbuitvinfo_spmsk": 6506,
      "gtmatched": 6507,
      "lpid": 6508,
      "##_list_fast": 6509,
      "aff_bin_tests": 6510,
      "##ial_schedule": 6511,
      "_to_s": 6512,
      "tag_sep": 6513,
      "vmark_val": 6514,
      "simde_wasm_f": 6515,
      "mpa_": 6516,
      "copy_shape": 6517,
      "##_expand": 6518,
      "cntx_thresh": 6519,
      "upma_bin_tests": 6520,
      "upma_uset_tests": 6521,
      "is_br": 6522,
      "is_match": 6523,
      "mn_a": 6524,
      "cipher_": 6525,
      "pyarray_dim": 6526,
      "matchnum": 6527,
      "variancer_": 6528,
      "mcu": 6529,
      "mcoperand": 6530,
      "isl_map_copy": 6531,
      "isl_map_is_equal": 6532,
      "##estructa": 6533,
      "refs": 6534,
      "schedule": 6535,
      "ldbx": 6536,
      "read_lengths_": 6537,
      "##ighbor": 6538,
      "##hash_from_md_alg": 6539,
      "simde_mm_loadu_ps": 6540,
      "simde_mm_loadu_pd": 6541,
      "nrhs": 6542,
      "##emplate": 6543,
      "token_type": 6544,
      "prev_mask": 6545,
      "prev_child": 6546,
      "isl_basic_set_is_equal": 6547,
      "genome": 6548,
      "ipnt": 6549,
      "vl_hi": 6550,
      "vl_lo": 6551,
      "vl_dim": 6552,
      "##_produce": 6553,
      "##_memb": 6554,
      "lstopo_destroy": 6555,
      "lstopo_type_filter": 6556,
      "lstopo_popul": 6557,
      "ucp_proto_init": 6558,
      "bin_info_s": 6559,
      "kh_get": 6560,
      "hwloc__duplicate": 6561,
      "_maskz_and": 6562,
      "##_object_by": 6563,
      "isl_pw_multi_aff_piece": 6564,
      "arena_bin": 6565,
      "attrname": 6566,
      "_mongoc": 6567,
      "##ed_read_": 6568,
      "rkbuf_u": 6569,
      "##_params_t": 6570,
      "_zdot": 6571,
      "b_ir": 6572,
      "gist_tests": 6573,
      "desclen": 6574,
      "desc_hash": 6575,
      "locked_read_": 6576,
      "##slot": 6577,
      "firstnode": 6578,
      "nab_dim": 6579,
      "phases": 6580,
      "##_def_dt": 6581,
      "##ft_amount": 6582,
      "##stride_y": 6583,
      "charact": 6584,
      "char_len": 6585,
      "sig_alg_list": 6586,
      "smlnum": 6587,
      "##unk_id": 6588,
      "##_grid": 6589,
      "avail": 6590,
      "mynbrs": 6591,
      "my_color_de": 6592,
      "partarraycnt": 6593,
      "socklen": 6594,
      "timer": 6595,
      "absxi": 6596,
      "_poly_getnoise_": 6597,
      "aa_g": 6598,
      "seq_cst": 6599,
      "current_index": 6600,
      "vnonsignw_hi": 6601,
      "vnonsignw_lo": 6602,
      "vnanmaskw_hi": 6603,
      "vnanmaskw_lo": 6604,
      "vmantw_hi": 6605,
      "vmantw_lo": 6606,
      "##meric": 6607,
      "##sigset": 6608,
      "##distance_double": 6609,
      "##distance_char": 6610,
      "grid_box": 6611,
      "spacegt": 6612,
      "spacehitrange": 6613,
      "dot_inc": 6614,
      "barcode_tag": 6615,
      "cpv": 6616,
      "cpt_array": 6617,
      "factorize_last": 6618,
      "x_remainder": 6619,
      "##_prev": 6620,
      "##_pred": 6621,
      "last_buf": 6622,
      "##check_ssl_": 6623,
      "##_region": 6624,
      "isl_pw_qpolynomial_piece": 6625,
      "cbuff": 6626,
      "rrname": 6627,
      "##_var_coef": 6628,
      "iovec": 6629,
      "io_plex_": 6630,
      "m_ab": 6631,
      "numex_result": 6632,
      "##_domain_wrap": 6633,
      "test_simde_vcombine_f": 6634,
      "mpa_bin_tests": 6635,
      "buildsym": 6636,
      "lnz": 6637,
      "ossl_check_ssl_": 6638,
      "skip": 6639,
      "writes_ok": 6640,
      "writedest": 6641,
      "yyx": 6642,
      "yyn": 6643,
      "##get_l": 6644,
      "##_set_header_t": 6645,
      "##chars_http_": 6646,
      "##_ref_count": 6647,
      "scaled": 6648,
      "##_eval": 6649,
      "##_encoding": 6650,
      "sum_imgr_": 6651,
      "sum_imgr_ptr": 6652,
      "__pyx_v_dist_matrix": 6653,
      "isl_seq_c": 6654,
      "sumsq_imgr_": 6655,
      "sumsq_imgr_ptr": 6656,
      "tags_used": 6657,
      "libmetis__irand": 6658,
      "complete_cpuset": 6659,
      "isl_printer_print_isl_": 6660,
      "ndiml": 6661,
      "ndimr": 6662,
      "sin_addr": 6663,
      "##uzzy": 6664,
      "covrow": 6665,
      "cov_rbuf": 6666,
      "##_callbacks": 6667,
      "##_and_children": 6668,
      "##_and_free_object": 6669,
      "__pyx_getitemint_list_fast": 6670,
      "##cmd": 6671,
      "##_result_": 6672,
      "##johnson": 6673,
      "extensions": 6674,
      "__pyx_v_nodes": 6675,
      "_kalman_smooth": 6676,
      "dot_start_inc": 6677,
      "msgid": 6678,
      "ssl_ciph": 6679,
      "dist_symbol": 6680,
      "dist_slot": 6681,
      "rev_fwd_lift_int": 6682,
      "shift_amount": 6683,
      "hwloc__i": 6684,
      "bli_cntx_get_l": 6685,
      "mbedtls_ssl_context": 6686,
      "mbedtls_ssl_hash_from_md_alg": 6687,
      "snprintf": 6688,
      "snrp": 6689,
      "##_messages": 6690,
      "addresses": 6691,
      "result_aa": 6692,
      "isl_union_set_free": 6693,
      "sockaddr_in": 6694,
      "xmlstrcmp": 6695,
      "best_len": 6696,
      "joined": 6697,
      "otf_keyvaluepair": 6698,
      "init_params": 6699,
      "##d_extensions": 6700,
      "threshold": 6701,
      "dbeta_imgr_": 6702,
      "dbeta_imgr_ptr": 6703,
      "dgamma_imgr_": 6704,
      "dgamma_imgr_ptr": 6705,
      "dof_point_array": 6706,
      "dnskeysigset": 6707,
      "point_dof": 6708,
      "dst_key_free": 6709,
      "flatgeobuf_ctx": 6710,
      "vuaux": 6711,
      "linfo": 6712,
      "##_common": 6713,
      "isl_val_free": 6714,
      "##uri_reqd": 6715,
      "##_range_t": 6716,
      "##_range_tests": 6717,
      "test_simde_mm_mask_madd_epi": 6718,
      "parsed_extensions": 6719,
      "_kalman_smoother_skalmansmoother": 6720,
      "_kalman_smoother_ckalmansmoother": 6721,
      "_kalman_smoother_dkalmansmoother": 6722,
      "perf_ctl": 6723,
      "_xmlparsern": 6724,
      "cn_name": 6725,
      "gctr": 6726,
      "rdclass": 6727,
      "rounding": 6728,
      "round_buffer_t": 6729,
      "##randv": 6730,
      "memory_location": 6731,
      "matches_i": 6732,
      "as_fc_diag_data": 6733,
      "as_fc_offd_data": 6734,
      "af_dim": 6735,
      "g_tw_lp": 6736,
      "old_": 6737,
      "##word_stor": 6738,
      "numbero": 6739,
      "simde_vcombine_s": 6740,
      "simde_vcombine_u": 6741,
      "##points": 6742,
      "##labels": 6743,
      "isl_schedule_node_ba": 6744,
      "bli_blksz_copy_if": 6745,
      "kr_block_start": 6746,
      "ncolsleft": 6747,
      "oimi": 6748,
      "pgctr": 6749,
      "pollfd": 6750,
      "tw_lp_on": 6751,
      "xkb": 6752,
      "nstart": 6753,
      "received_rank": 6754,
      "expand_count": 6755,
      "expand_next": 6756,
      "env_delta": 6757,
      "first_sign": 6758,
      "bszid": 6759,
      "_x_start": 6760,
      "_x_delta": 6761,
      "apiversion": 6762,
      "cstep_c": 6763,
      "cstep_b": 6764,
      "fwidth": 6765,
      "fwd_lift_int": 6766,
      "itemplate": 6767,
      "rstep_c": 6768,
      "rstep_a": 6769,
      "vs_hi": 6770,
      "vs_lo": 6771,
      "##format": 6772,
      "##converter": 6773,
      "##_clear_recursive": 6774,
      "show_text": 6775,
      "__pyx_v_x_norm": 6776,
      "__pyx_v_x_data_ptr": 6777,
      "vkrinfo_t": 6778,
      "simde_x_mm_deinterleaveeven": 6779,
      "simde_x_mm_deinterleaveodd": 6780,
      "ngx_p": 6781,
      "ngx_pool_s": 6782,
      "mupa_pma_tests": 6783,
      "mupa_pa_tests": 6784,
      "recv_ff": 6785,
      "recv_vec_starts": 6786,
      "bin_locus_tests": 6787,
      "bin_locus_ma_tests": 6788,
      "numex_table_t": 6789,
      "test_simde_x_mm_deinterleaveeven_epi": 6790,
      "test_simde_x_mm_deinterleaveodd_epi": 6791,
      "lua_pushstring": 6792,
      "hwloc_utils_userdata_free_recursive": 6793,
      "hwloc_utils_userdata_clear_recursive": 6794,
      "droppedcpuset": 6795,
      "droppednodeset": 6796,
      "dgammar_": 6797,
      "dgammar_ptr": 6798,
      "latency_base": 6799,
      "vaghijklmnopqrstuv": 6800,
      "encoded_buf": 6801,
      "encoded_chars_http_": 6802,
      "ngx_http_in": 6803,
      "ngx_http_set_header_t": 6804,
      "ngx_stream_phase_t": 6805,
      "ngx_stream_phase_handler": 6806,
      "gtmergestreamitem": 6807,
      "global_": 6808,
      "iov_len": 6809,
      "rface": 6810,
      "##numeric": 6811,
      "##ict_object_by": 6812,
      "##_partial_schedule": 6813,
      "##_sweep_max": 6814,
      "hostname": 6815,
      "mupa_upma_tests": 6816,
      "next_tok_pos": 6817,
      "##_multidx_st": 6818,
      "gt_dlistelem_get": 6819,
      "kh_str_s": 6820,
      "boxman_entries": 6821,
      "cjson_creat": 6822,
      "hwloc_bitmap_or": 6823,
      "replacechild": 6824,
      "isl_pw_qpolynomial_fold_piece": 6825,
      "nfills": 6826,
      "dc_huff_tbl_ptrs": 6827,
      "mutex_stat": 6828,
      "sec_val": 6829,
      "tvwgt": 6830,
      "ts_enq": 6831,
      "use_coincid": 6832,
      "##_levels": 6833,
      "##_outward": 6834,
      "##regs": 6835,
      "colind": 6836,
      "coeff": 6837,
      "dest_seg": 6838,
      "includes": 6839,
      "thread_data": 6840,
      "##ski_distance": 6841,
      "grad_beta": 6842,
      "py_xdecref": 6843,
      "__pyx_v_sample_index": 6844,
      "compression_flag": 6845,
      "bit_depth": 6846,
      "cs_dl_numeric": 6847,
      "hwloc_obj_memory_page_type_s": 6848,
      "hypre_sstruct": 6849,
      "kernel_zero_point": 6850,
      "apr_array_header_t": 6851,
      "privatetype": 6852,
      "ucp_proto_perf_range_t": 6853,
      "translated_keyword": 6854,
      "handlers": 6855,
      "jpeg_compress_struct": 6856,
      "##uclidean_distance_double": 6857,
      "relax_weight": 6858,
      "scamac_multidx_st": 6859,
      "fine_to_coarse_offset": 6860,
      "ofmt_alias": 6861,
      "elliptic_curve_len": 6862,
      "evalcurve": 6863,
      "fvertices": 6864,
      "rtmpd": 6865,
      "sokal": 6866,
      "source_addr": 6867,
      "##ummary": 6868,
      "##ntitydesc": 6869,
      "dimensions": 6870,
      "remainder_mask": 6871,
      "##_adj_r": 6872,
      "##postlin": 6873,
      "gtfirstcodesinfo": 6874,
      "pw_aff_bin_tests": 6875,
      "query_params": 6876,
      "sections_length": 6877,
      "bli_cntx_get_blksz_def_dt": 6878,
      "brotli_min_size_t": 6879,
      "##riptor": 6880,
      "zopflinode": 6881,
      "bli_cntx_get_bmult_dt": 6882,
      "auxadjncy": 6883,
      "([[": 6884,
      "_ddot": 6885,
      "_mp_size": 6886,
      "__kstream_t": 6887,
      "aa_e": 6888,
      "bx_dim": 6889,
      "cap_p": 6890,
      "cconvert": 6891,
      "dsrdata": 6892,
      "fvtemplate": 6893,
      "grayscale_bits": 6894,
      "hamming": 6895,
      "ideco": 6896,
      "is_rep": 6897,
      "jaccard_": 6898,
      "jcmd_op": 6899,
      "kms_request_": 6900,
      "lexmin": 6901,
      "leader": 6902,
      "llrint": 6903,
      "msrs": 6904,
      "mempool": 6905,
      "niter": 6906,
      "nbases": 6907,
      "n_shards": 6908,
      "ptemp_data": 6909,
      "pkeys": 6910,
      "rmarker": 6911,
      "rng_seq": 6912,
      "rseq_buf": 6913,
      "superclasses": 6914,
      "single_dis": 6915,
      "sandybr": 6916,
      "s_zset": 6917,
      "square_side": 6918,
      "tp_start": 6919,
      "ubfactor": 6920,
      "user_key": 6921,
      "wordp": 6922,
      "weighted_": 6923,
      "waittime": 6924,
      "##modules": 6925,
      "##kowski_distance": 6926,
      "##vial_region": 6927,
      "##getable": 6928,
      "##global": 6929,
      "##image": 6930,
      "##househ": 6931,
      "##junct": 6932,
      "##q_element_pre": 6933,
      "num_variables": 6934,
      "num_ranges": 6935,
      "archive": 6936,
      "fla_househ": 6937,
      "inscode": 6938,
      "inversepostlin": 6939,
      "list_entry": 6940,
      "live_range_tests": 6941,
      "##_pattern_type": 6942,
      "cosine": 6943,
      "index_initialized": 6944,
      "brcast_num": 6945,
      "subtrahend": 6946,
      "preconds": 6947,
      "disktree": 6948,
      "__pyx_v_coord": 6949,
      "##_nonzeros": 6950,
      "restrict_object_by": 6951,
      "trivial": 6952,
      "##ackage_power_": 6953,
      "__pyx_v_neighbor": 6954,
      "__pyx_v_neg_force": 6955,
      "__pyx_v_x_ind_ptr": 6956,
      "__pyx_v_binner": 6957,
      "__pyx_v_d_ijk": 6958,
      "isl_trivial_region": 6959,
      "##shev_distance_double": 6960,
      "tmp_map_offd": 6961,
      "##urbo_ratio": 6962,
      "resource_pattern_type": 6963,
      "makejohnson": 6964,
      "row_degree": 6965,
      "env_var": 6966,
      "enc_value": 6967,
      "spng_subimage": 6968,
      "internal_ref_count": 6969,
      "buf_writer": 6970,
      "##tributes": 6971,
      "pos_special": 6972,
      "ompi_mpi_byte": 6973,
      "_htmlentitydesc": 6974,
      "optimizeptr": 6975,
      "unlink_and_free_object": 6976,
      "new_fpt_array": 6977,
      "hypre_binarysearch": 6978,
      "ngx_stream_upstream": 6979,
      "quant_tbl_ptrs": 6980,
      "vmagic_bias_": 6981,
      "max_non_turbo_ratio": 6982,
      "is_broadcast": 6983,
      "lstopo_destroy_userdata": 6984,
      "lstopo_populate_userdata": 6985,
      "ucp_proto_init_params_t": 6986,
      "hwloc__duplicate_object": 6987,
      "locked_read_u": 6988,
      "my_color_deconverter": 6989,
      "_poly_getnoise_eta": 6990,
      "io_plex_t": 6991,
      "##_domain_wrappe": 6992,
      "##_encoding_map": 6993,
      "isl_printer_print_isl_int": 6994,
      "_kalman_smoother_zkalmansmoother": 6995,
      "ssl_cipher_st": 6996,
      "result_aaaa": 6997,
      "otf_keyvaluepairlist_struct": 6998,
      "point_dof_map_array": 6999,
      "_xmlparsernodeinfo": 7000,
      "##word_storage": 7001,
      "bli_blksz_copy_if_pos": 7002,
      "encoded_chars_http_uri_reqd": 7003,
      "ngx_stream_phase_handler_s": 7004,
      "gt_dlistelem_get_data": 7005,
      "use_coincidence": 7006,
      "kms_request_str_t": 7007,
      "single_disjunct": 7008,
      "sandybridge_": 7009,
      "ubfactors": 7010,
      "user_keyword_storage": 7011,
      "##ackage_power_limit": 7012,
      "__pyx_v_neighbor_use": 7013,
      "unlink_and_free_object_and_children": 7014,
      "_v": 7015,
      "_li": 7016,
      "_ds": 7017,
      "_array": 7018,
      "_get": 7019,
      "_connection": 7020,
      "aj": 7021,
      "ang": 7022,
      "a_array": 7023,
      "ance": 7024,
      "alts": 7025,
      "blo": 7026,
      "b_shared_t": 7027,
      "byte": 7028,
      "box_": 7029,
      "cds": 7030,
      "cit": 7031,
      "case": 7032,
      "ctemp": 7033,
      "cref": 7034,
      "ca_c": 7035,
      "cinf": 7036,
      "client": 7037,
      "dx": 7038,
      "d_chunk": 7039,
      "delta": 7040,
      "d_la": 7041,
      "delete": 7042,
      "dcopy_": 7043,
      "emp": 7044,
      "eff": 7045,
      "fc": 7046,
      "fj": 7047,
      "fct": 7048,
      "fast": 7049,
      "fold": 7050,
      "gk": 7051,
      "gtr": 7052,
      "gid": 7053,
      "hf": 7054,
      "iu": 7055,
      "ib": 7056,
      "imp": 7057,
      "iblock": 7058,
      "ignore": 7059,
      "jkey": 7060,
      "ker_": 7061,
      "kname": 7062,
      "lj": 7063,
      "lz": 7064,
      "ldd": 7065,
      "lea": 7066,
      "lde": 7067,
      "lscale": 7068,
      "l_ij": 7069,
      "ment": 7070,
      "miv": 7071,
      "module": 7072,
      "manager": 7073,
      "nelem": 7074,
      "nof": 7075,
      "nmax": 7076,
      "n_var": 7077,
      "n_eq": 7078,
      "ninf": 7079,
      "nnan": 7080,
      "nki": 7081,
      "nelements": 7082,
      "oc": 7083,
      "o_": 7084,
      "pj": 7085,
      "pinfo": 7086,
      "pad_": 7087,
      "plain": 7088,
      "pns": 7089,
      "pull": 7090,
      "pinv": 7091,
      "paps": 7092,
      "pere": 7093,
      "qs": 7094,
      "q_i": 7095,
      "qsizes": 7096,
      "rp": 7097,
      "rds": 7098,
      "rka": 7099,
      "rscale": 7100,
      "rule": 7101,
      "rdeg": 7102,
      "root": 7103,
      "slo": 7104,
      "sof": 7105,
      "tma": 7106,
      "tight": 7107,
      "uint": 7108,
      "uoffset": 7109,
      "umin": 7110,
      "umap_": 7111,
      "urit": 7112,
      "uscf": 7113,
      "vsi": 7114,
      "v_div": 7115,
      "wsum": 7116,
      "wgt": 7117,
      "wrow": 7118,
      "x_dim": 7119,
      "zla": 7120,
      "##aw": 7121,
      "##ap_": 7122,
      "##aenc": 7123,
      "##ls": 7124,
      "##oor": 7125,
      "##cat": 7126,
      "##c_buf": 7127,
      "##ccopyv": 7128,
      "##create": 7129,
      "##_um": 7130,
      "##_vec": 7131,
      "##_print": 7132,
      "##_alloc": 7133,
      "##_locks": 7134,
      "##_label": 7135,
      "##_ordinal": 7136,
      "##mbda": 7137,
      "##ume": 7138,
      "##ump": 7139,
      "##uments": 7140,
      "##uality": 7141,
      "##tot": 7142,
      "##es_large": 7143,
      "##event": 7144,
      "##xch": 7145,
      "##xtra": 7146,
      "##ning": 7147,
      "##nrm": 7148,
      "##partition": 7149,
      "##parts": 7150,
      "##vr": 7151,
      "##vscalv": 7152,
      "##rase": 7153,
      "##r_cur": 7154,
      "##r_ukrs": 7155,
      "##gi": 7156,
      "##be": 7157,
      "##bet": 7158,
      "##bfs": 7159,
      "##iou": 7160,
      "##ime": 7161,
      "##imp": 7162,
      "##iph": 7163,
      "##ices": 7164,
      "##iency": 7165,
      "##isible": 7166,
      "##ir_ukrs": 7167,
      "##hull_tests": 7168,
      "##sen": 7169,
      "##do": 7170,
      "##dvalues": 7171,
      "##dcopyv": 7172,
      "##wb": 7173,
      "##width": 7174,
      "##wait": 7175,
      "##ject": 7176,
      "##fort": 7177,
      "##fd_t": 7178,
      "##qij": 7179,
      "##zlin": 7180,
      "##zcopyv": 7181,
      "number": 7182,
      "##trn": 7183,
      "##tres": 7184,
      "##trace": 7185,
      "##trdup": 7186,
      "##trang": 7187,
      "##literal": 7188,
      "##ndx": 7189,
      "##lex": 7190,
      "##lection": 7191,
      "##level": 7192,
      "##etext": 7193,
      "##etter": 7194,
      "##alc": 7195,
      "##ref_": 7196,
      "##reverse": 7197,
      "##metri": 7198,
      "##mextra": 7199,
      "floor": 7200,
      "##ayout_": 7201,
      "##ptree": 7202,
      "inst": 7203,
      "inlen": 7204,
      "initi": 7205,
      "inbfs": 7206,
      "add_line": 7207,
      "mult": 7208,
      "##extra": 7209,
      "##extrang": 7210,
      "##props": 7211,
      "##efile": 7212,
      "##ctive": 7213,
      "##id_": 7214,
      "##or_map": 7215,
      "##ature": 7216,
      "indices": 7217,
      "##l_u": 7218,
      "lim": 7219,
      "liv": 7220,
      "##language": 7221,
      "lcp": 7222,
      "lcs": 7223,
      "lcol": 7224,
      "##_poly": 7225,
      "##arning": 7226,
      "labels": 7227,
      "]>],": 7228,
      "##odec": 7229,
      "##t_len": 7230,
      "##t_tf": 7231,
      "start_co": 7232,
      "##siti": 7233,
      "##dsort_": 7234,
      "pream": 7235,
      "##reset": 7236,
      "##_is_a": 7237,
      "##sion_con": 7238,
      "decrypt_": 7239,
      "##ression_hdr": 7240,
      "##_psk": 7241,
      "##ert": 7242,
      "##er_s": 7243,
      "##ertype": 7244,
      "##erpre": 7245,
      "ifst": 7246,
      "ifunc": 7247,
      "ifail": 7248,
      "##x_get": 7249,
      "##x_language": 7250,
      "cmpxch": 7251,
      "##stag": 7252,
      "##d_range": 7253,
      "##eadsort_": 7254,
      "##enom": 7255,
      "##entries": 7256,
      "##ensiti": 7257,
      "##subtree": 7258,
      "##subconnected": 7259,
      "##subject": 7260,
      "##olprops": 7261,
      "##s_idx": 7262,
      "##s_off": 7263,
      "##s_to": 7264,
      "##inst": 7265,
      "##inser": 7266,
      "##inrange": 7267,
      "##inerpre": 7268,
      "##derep": 7269,
      "##debug": 7270,
      "##conj": 7271,
      "##__free": 7272,
      "##_sm": 7273,
      "##_send": 7274,
      "##_sort_": 7275,
      "##_suffix_len": 7276,
      "##_sensiti": 7277,
      "nent": 7278,
      "##setbit": 7279,
      "##matrix_": 7280,
      "##link_t": 7281,
      "reparse": 7282,
      "reverse": 7283,
      "##_tma": 7284,
      "trust": 7285,
      "##block_float": 7286,
      "##_cb": 7287,
      "##_core": 7288,
      "##_cstr": 7289,
      "##_cache": 7290,
      "##_create": 7291,
      "shptree": 7292,
      "##dist": 7293,
      "##mults": 7294,
      "_cinvscalv": 7295,
      "##ph_ps": 7296,
      "_mm_sub_ps": 7297,
      "__pyx_v_r": 7298,
      "__pyx_v_row": 7299,
      "__pyx_v_qij": 7300,
      "##unks": 7301,
      "##uth": 7302,
      "isl_hash": 7303,
      "##_fdiv": 7304,
      "simple": 7305,
      "##_dist_": 7306,
      "##_sign": 7307,
      "##vtps": 7308,
      "##product": 7309,
      "##_ns": 7310,
      "##_nume": 7311,
      "##_module": 7312,
      "##_method": 7313,
      "##_strdup": 7314,
      "##negone": 7315,
      "prop": 7316,
      "nimi": 7317,
      "simde_x_mm": 7318,
      "alphabet": 7319,
      "##_inq": 7320,
      "##_input": 7321,
      "##shortr": 7322,
      "##opd": 7323,
      "grids": 7324,
      "stats_s": 7325,
      "tmpcode": 7326,
      "##obj_type": 7327,
      "##remain": 7328,
      "spms": 7329,
      "##p_gi": 7330,
      "##varids": 7331,
      "simde_vqmovun_s": 7332,
      "hwloc_ps": 7333,
      "hwloc_de": 7334,
      "hwloc_type": 7335,
      "hwloc_get": 7336,
      "hwloc_x": 7337,
      "hwloc_connect": 7338,
      "hwloc_tma": 7339,
      "##cpair": 7340,
      "cdot": 7341,
      "##_rdataset": 7342,
      "##_raw": 7343,
      "##chunk_id": 7344,
      "chil": 7345,
      "mat_me": 7346,
      "##eadjo": 7347,
      "val_un": 7348,
      "##eys": 7349,
      "order": 7350,
      "##files": 7351,
      "##_read": 7352,
      "##_reparse": 7353,
      "spng__free": 7354,
      "##_intarray": 7355,
      "##_int_set": 7356,
      "dns_ma": 7357,
      "dns_name": 7358,
      "ngr": 7359,
      "##bufferremain": 7360,
      "__pyx_v_summary": 7361,
      "##listget": 7362,
      "compptr": 7363,
      "##_uc": 7364,
      "##_ud_t": 7365,
      "##_uword": 7366,
      "##_undiff": 7367,
      "rdata_a": 7368,
      "##entryget": 7369,
      "node_var_coef": 7370,
      "##storedvalues": 7371,
      "blkn": 7372,
      "vcvtps": 7373,
      "##er_of": 7374,
      "value_tuple": 7375,
      "cs_m": 7376,
      "ngx_s": 7377,
      "pool_": 7378,
      "##list_add": 7379,
      "rd_kafka_group_": 7380,
      "##_first_": 7381,
      "##et_id": 7382,
      "##_diag_a": 7383,
      "oplen": 7384,
      "##_map_equal": 7385,
      "##_map_domain": 7386,
      "ldu": 7387,
      "ldw": 7388,
      "ldf": 7389,
      "cur_len": 7390,
      "cur_offset": 7391,
      "cur_match": 7392,
      "curcpuset": 7393,
      "channel": 7394,
      "chunks": 7395,
      "_round_ps": 7396,
      "_round_pd": 7397,
      "dns_rdata_init": 7398,
      "dns_rdata_rr": 7399,
      "##_setf": 7400,
      "##_set_c": 7401,
      "##_set_type_filter": 7402,
      "##ashed_": 7403,
      "keynode": 7404,
      "simde_mm_m": 7405,
      "##_width": 7406,
      "upa": 7407,
      "upper": 7408,
      "un_loc": 7409,
      "unit_": 7410,
      "##ofstoredvalues": 7411,
      "output_max": 7412,
      "child_index": 7413,
      "##manentryget": 7414,
      "color_map": 7415,
      "mapper": 7416,
      "##_hull": 7417,
      "newkey": 7418,
      "new_extension": 7419,
      "outputseg": 7420,
      "outputbufferremain": 7421,
      "tsrange": 7422,
      "offd": 7423,
      "##output_channels": 7424,
      "obj_type": 7425,
      "__pyx_v_src_label": 7426,
      "hypre_intarray": 7427,
      "##_from_pw_multi_aff": 7428,
      "##_from_gr": 7429,
      "##_fromprivate": 7430,
      "##_multi_union_pw_aff": 7431,
      "##iciency": 7432,
      "isl_union_set_": 7433,
      "##structa": 7434,
      "ngx_stream_core": 7435,
      "##f_value": 7436,
      "print_constraint": 7437,
      "print_rdataset": 7438,
      "print_set_c": 7439,
      "##_layout_": 7440,
      "test_simde_vqmovun_s": 7441,
      "ukr_dts": 7442,
      "##_is_read": 7443,
      "__pyx_v_keys": 7444,
      "test_simde_mm_shldv_epi": 7445,
      "min_inc": 7446,
      "equal_interse": 7447,
      "equal_input": 7448,
      "##filterarg": 7449,
      "bijective": 7450,
      "gt_range": 7451,
      "gt_condenseq": 7452,
      "gt_shortr": 7453,
      "##_entry_box": 7454,
      "clacg": 7455,
      "hash_value": 7456,
      "symbol": 7457,
      "##collection": 7458,
      "##_cost": 7459,
      "isl_set_intersect": 7460,
      "##_multi_aff_tests": 7461,
      "range_idx": 7462,
      "par_id": 7463,
      "errstring": 7464,
      "##oderparams": 7465,
      "codepoint": 7466,
      "##_vali": 7467,
      "##encoding": 7468,
      "##encoderparams": 7469,
      "rdatasets": 7470,
      "fnr_cur": 7471,
      "##nnz": 7472,
      "voutput_max": 7473,
      "##_priority": 7474,
      "nc_inq": 7475,
      "nclistget": 7476,
      "aws_s": 7477,
      "max_rec": 7478,
      "max_match": 7479,
      "pcind": 7480,
      "search": 7481,
      "setres": 7482,
      "##_bin_op": 7483,
      "##_bin_fail_tests": 7484,
      "r_tr": 7485,
      "isl_mat_set_": 7486,
      "param_fromprivate": 7487,
      "lperm": 7488,
      "lparent": 7489,
      "pytuple_getitem": 7490,
      "aff_eval": 7491,
      "ker_dts": 7492,
      "html": 7493,
      "pma_equal": 7494,
      "simde_wasm_u": 7495,
      "mpart": 7496,
      "copycode": 7497,
      "cntx_b": 7498,
      "upma_bin_fail_tests": 7499,
      "is_validity": 7500,
      "##args": 7501,
      "diag_entries": 7502,
      "cipher": 7503,
      "vnanh": 7504,
      "mcinst": 7505,
      "##cession_con": 7506,
      "isl_map_from_basic": 7507,
      "##c_subtree": 7508,
      "itv": 7509,
      "itf": 7510,
      "nr_infos": 7511,
      "##_pixel": 7512,
      "previou": 7513,
      "##_func_t": 7514,
      "distnu": 7515,
      "freep": 7516,
      "##oked": 7517,
      "priv_size": 7518,
      "funs": 7519,
      "apr_table_t": 7520,
      "kh_c": 7521,
      "kh_int_set": 7522,
      "hwloc__obj_type": 7523,
      "isl_pw_multi_aff_from": 7524,
      "_madd_epi": 7525,
      "raw": 7526,
      "##ed_bo": 7527,
      "_zinvscalv": 7528,
      "##build": 7529,
      "issubconnected": 7530,
      "nfv": 7531,
      "verb": 7532,
      "gw_plugin": 7533,
      "n_known": 7534,
      "##tgsy": 7535,
      "sig_alg_received": 7536,
      "hts_itr": 7537,
      "proto_name": 7538,
      "##_vertices": 7539,
      "uripath": 7540,
      "adjacent": 7541,
      "socket_id": 7542,
      "##_unlock": 7543,
      "##_unbind": 7544,
      "hypre_parvectordestroy": 7545,
      "isl_union_pw_multi_aff_plain_is_equal": 7546,
      "recv_pos": 7547,
      "recv_bufs": 7548,
      "fcols": 7549,
      "seqnum": 7550,
      "##_stashed_": 7551,
      "bind_set_tests": 7552,
      "bind_aff_tests": 7553,
      "bind_mup": 7554,
      "bind_um": 7555,
      "bind_map_domain": 7556,
      "_dinvscalv": 7557,
      "gridst": 7558,
      "dot_product": 7559,
      "rkmq": 7560,
      "probe_ns": 7561,
      "arguments": 7562,
      "##_per_pixel": 7563,
      "last_length": 7564,
      "dns_zonemgr": 7565,
      "chunk_step": 7566,
      "isl_pw_qpolynomial_read_from_str": 7567,
      "rrp": 7568,
      "##version_tests": 7569,
      "stream_read_bits": 7570,
      "cmsg": 7571,
      "cmsmat": 7572,
      "pwqp_gi": 7573,
      "nmalloc_large": 7574,
      "bucket": 7575,
      "lnk": 7576,
      "srvr": 7577,
      "write_huff_code": 7578,
      "yyi": 7579,
      "##range_tests": 7580,
      "##_compression_hdr": 7581,
      "##_refs": 7582,
      "p_netlib_ztgsy": 7583,
      "checker": 7584,
      "check_reparse": 7585,
      "qual_tag": 7586,
      "##_event": 7587,
      "int_to_float_test": 7588,
      "__pyx_v_dist": 7589,
      "isl_seq_gcd": 7590,
      "mraenc": 7591,
      "covinv": 7592,
      "##_metadata": 7593,
      "cdata_pos": 7594,
      "nrequests_large": 7595,
      "##_recv": 7596,
      "##back_tests": 7597,
      "##onecurve": 7598,
      "extension_type": 7599,
      "##_iterator": 7600,
      "ukr_fps": 7601,
      "ndalloc_large": 7602,
      "ssl_requ": 7603,
      "##feature": 7604,
      "##al_shift": 7605,
      "force_zero": 7606,
      "dist_code": 7607,
      "revoked": 7608,
      "proces": 7609,
      "proc_locks": 7610,
      "isl_multi_aff_free": 7611,
      "##axpy_": 7612,
      "ker_fps": 7613,
      "as_ff_offd_j": 7614,
      "as_ff_diag_j": 7615,
      "as_ff_diag_data": 7616,
      "as_ff_offd_data": 7617,
      "as_ff_diag_i": 7618,
      "scanline_stride": 7619,
      "queues": 7620,
      "snvtxs": 7621,
      "##children": 7622,
      "##gho": 7623,
      "template_opsize": 7624,
      "simde_vzip_": 7625,
      "nflushes_large": 7626,
      "##_equality": 7627,
      "initstat": 7628,
      "_cmsc": 7629,
      "##_flags": 7630,
      "dnskeyrr": 7631,
      "hypre_box": 7632,
      "kvtree_new": 7633,
      "kvtree_setf": 7634,
      "##_extract": 7635,
      "##perline": 7636,
      "##fg_": 7637,
      "##_compute": 7638,
      "_cvtph_ps": 7639,
      "updatekey": 7640,
      "update_keys": 7641,
      "test_simde_mm_mask_lzcnt_epi": 7642,
      "lua_raw": 7643,
      "nr_block_start": 7644,
      "##ctionary_match": 7645,
      "bli_is_conj": 7646,
      "##eights_": 7647,
      "as_fc_diag_i": 7648,
      "recv_sf_i": 7649,
      "simde_vzip_s": 7650,
      "brotliencoderparams": 7651,
      "pyunicode_is_read": 7652,
      "_offd_": 7653,
      "ceil": 7654,
      "has_name": 7655,
      "has_alg": 7656,
      "old_extension": 7657,
      "numbers": 7658,
      "number_of": 7659,
      "##_rr_peer": 7660,
      "isl_pw_qpolynomial_fold_": 7661,
      "##segmentstructa": 7662,
      "insn_opsize": 7663,
      "pixel_offset": 7664,
      "_unur": 7665,
      "base_cost": 7666,
      "kr_block_offset": 7667,
      "mssetbit": 7668,
      "pollset": 7669,
      "sdenom": 7670,
      "short_to_float_test": 7671,
      "_sup_kers": 7672,
      "##ower_loc": 7673,
      "##_gist": 7674,
      "##_gist_tests": 7675,
      "first_bits": 7676,
      "unbind_set_tests": 7677,
      "unbind_aff_tests": 7678,
      "unbind_multi_aff_tests": 7679,
      "bind_pa_tests": 7680,
      "chunk_id_rel": 7681,
      "jose_io": 7682,
      "_shortest_path_initialize": 7683,
      "bwtsubject": 7684,
      "logic": 7685,
      "nrowsleft": 7686,
      "##idim_to": 7687,
      "##_format": 7688,
      "alloc_ctx": 7689,
      "validity": 7690,
      "__ctype_tol": 7691,
      "insert_length": 7692,
      "insert_index": 7693,
      "##ription": 7694,
      "##bug_sort_": 7695,
      "cmsevaltonecurve": 7696,
      "hwloc_bitmap_intersect": 7697,
      "lua_pushnumber": 7698,
      "whitepoint": 7699,
      "hypre_parcsrmatrix": 7700,
      "tcache_bytes": 7701,
      "tcache_stashed_": 7702,
      "##rkt": 7703,
      "thiswb": 7704,
      "##_sweeps": 7705,
      "group_ref_": 7706,
      "group_output_channels": 7707,
      "mupa_un_tests": 7708,
      "isl_basic_map_list_get_at": 7709,
      "isl_basic_set_alloc": 7710,
      "erts_": 7711,
      "kh_str_nume": 7712,
      "boxman_entry_box": 7713,
      "replaceparent": 7714,
      "simde_vzipq_s": 7715,
      "simde_vzipq_u": 7716,
      "disjoint_edges": 7717,
      "ckrinfo_t": 7718,
      "nfills_large": 7719,
      "isc_sockaddr_equal": 7720,
      "isl_schedule_constraints_set": 7721,
      "bound_tests": 7722,
      "jsontrace": 7723,
      "dict_id": 7724,
      "##connection_m": 7725,
      "threadcount": 7726,
      "trj_data": 7727,
      "alpn_len": 7728,
      "simde_vmull_s": 7729,
      "simde_vmull_u": 7730,
      "simde_vmlal_s": 7731,
      "simde_vmlal_u": 7732,
      "rd_list_cnt": 7733,
      "send_buf_i": 7734,
      "apr_pollfd_t": 7735,
      "tagged_validity": 7736,
      "tagged_condition": 7737,
      "scalable_malloc": 7738,
      "gt_str_append_cstr": 7739,
      "gt_str_append_uword": 7740,
      "bind_pma_domain_tests": 7741,
      "bind_pma_domain_wrappe": 7742,
      "##_from_basic_set": 7743,
      "asn": 7744,
      "bytes_per_pixel": 7745,
      "ca_name": 7746,
      "ndims": 7747,
      "slash": 7748,
      "##spobj": 7749,
      "##enumber": 7750,
      "keydatarr": 7751,
      "gtlayout": 7752,
      "malloc_mutex_unlock": 7753,
      "is_dictionary_match": 7754,
      "bt_stream_cb": 7755,
      "##charsperline": 7756,
      "__gmpz_divisible": 7757,
      "test_simde_mm_maskz_madd_epi": 7758,
      "redset_rs_get_": 7759,
      "received_chunk_id": 7760,
      "aws_byte_buf_append": 7761,
      "padding_char": 7762,
      "vtkexodusii_ex__": 7763,
      "mbedtls_ecp_curve_info_from_gr": 7764,
      "_min_ps": 7765,
      "_sinvscalv": 7766,
      "cwhere": 7767,
      "treecur": 7768,
      "##inverts": 7769,
      "##_srv_conf": 7770,
      "##grouplengths": 7771,
      "rd_kafka_topic_partition_list_add": 7772,
      "gt_match_get": 7773,
      "cram_block_compression_hdr": 7774,
      "errorcode": 7775,
      "frontid": 7776,
      "mpa_un_tests": 7777,
      "kh_get_refs": 7778,
      "character": 7779,
      "libmetis__irandinrange": 7780,
      "old_size": 7781,
      "numberof": 7782,
      "isl_schedule_node_band": 7783,
      "xkb_state": 7784,
      "cjson_createnumber": 7785,
      "ngx_stream_upstream_rr_peer": 7786,
      "_vir_ukrs": 7787,
      "_lispobj": 7788,
      "angle": 7789,
      "ancestor": 7790,
      "altsgn": 7791,
      "blosc": 7792,
      "box_hull_tests": 7793,
      "case_sensiti": 7794,
      "d_lambda": 7795,
      "deletekey": 7796,
      "empty": 7797,
      "efficiency": 7798,
      "fcblock": 7799,
      "gtreadjo": 7800,
      "gid_list_": 7801,
      "ker_ids": 7802,
      "leaderep": 7803,
      "mivolprops": 7804,
      "nofargs": 7805,
      "nmaxcharsperline": 7806,
      "occpair": 7807,
      "o_link_t": 7808,
      "pad_block_float": 7809,
      "plain_gist_tests": 7810,
      "pullback_tests": 7811,
      "papszlin": 7812,
      "pereloc": 7813,
      "slope": 7814,
      "soft_tf": 7815,
      "umap_un_tests": 7816,
      "uritextrang": 7817,
      "vsix": 7818,
      "##ap_range_tests": 7819,
      "##metric_subtree": 7820,
      "initial_shift": 7821,
      "add_linebuf": 7822,
      "lcolcount": 7823,
      "##_polylib": 7824,
      "start_costdiff": 7825,
      "preamble": 7826,
      "##_is_active": 7827,
      "decrypt_byte": 7828,
      "##x_language_t": 7829,
      "cmpxchg": 7830,
      "##inerprefilterarg": 7831,
      "trustkey": 7832,
      "shptreeinfo": 7833,
      "isl_hash_table": 7834,
      "simple_hull_tests": 7835,
      "propagate": 7836,
      "spmsuftab": 7837,
      "hwloc_debug_sort_": 7838,
      "hwloc_type_cmp": 7839,
      "hwloc_xml_": 7840,
      "hwloc_connect_children": 7841,
      "mat_message": 7842,
      "val_un_tests": 7843,
      "##_undifference": 7844,
      "rd_kafka_group_memb": 7845,
      "dns_rdata_rrsig": 7846,
      "un_locus_tests": 7847,
      "unit_union": 7848,
      "mapper_offd_a": 7849,
      "outputbufferremaining": 7850,
      "min_increment": 7851,
      "equal_intersection": 7852,
      "gt_range_length": 7853,
      "gt_shortreadsort_": 7854,
      "clacgv_": 7855,
      "##collection_st": 7856,
      "##encoding_id": 7857,
      "fnr_curr": 7858,
      "max_match_len": 7859,
      "isl_mat_set_element": 7860,
      "aff_eval_tests": 7861,
      "pma_equal_tests": 7862,
      "##cession_cone": 7863,
      "isl_map_from_basic_map": 7864,
      "distnumextra": 7865,
      "kh_int_set_t": 7866,
      "gw_plugin_data": 7867,
      "hts_itr_t": 7868,
      "uripathsegmentstructa": 7869,
      "##_unbind_params": 7870,
      "bind_mupa_tests": 7871,
      "bind_umap_range_tests": 7872,
      "bind_map_domain_tests": 7873,
      "pwqp_gist_tests": 7874,
      "ssl_require": 7875,
      "simde_vzip_u": 7876,
      "lua_rawset": 7877,
      "pyunicode_is_ready": 7878,
      "_shortest_path_initialize_node": 7879,
      "__ctype_tolower_loc": 7880,
      "hwloc_bitmap_intersects": 7881,
      "tcache_stashed_bytes": 7882,
      "group_ref_val": 7883,
      "kh_str_numex_language_t": 7884,
      "bind_pma_domain_wrapped_tests": 7885,
      "__gmpz_divisible_p": 7886,
      "redset_rs_get_encoding_id": 7887,
      "mbedtls_ecp_curve_info_from_grp_id": 7888,
      "ngx_stream_upstream_rr_peer_data_t": 7889,
      "case_sensitive": 7890,
      "gtreadjoinerprefilterarg": 7891,
      "leaderepoch": 7892,
      "papszlines": 7893,
      "soft_tfid": 7894,
      "uritextrangestructa": 7895,
      "hwloc_debug_sort_children": 7896,
      "gtreadjoinerprefilterarguments": 7897,
      "_g": 7898,
      "_re": 7899,
      "_ext": 7900,
      "_la": 7901,
      "_put": 7902,
      "__c": 7903,
      "_dec": 7904,
      "_sk": 7905,
      "_mem": 7906,
      "_obj": 7907,
      "__j": 7908,
      "_buffer": 7909,
      "__type": 7910,
      "_word": 7911,
      "_mult": 7912,
      "_dsc": 7913,
      "_adds_epi": 7914,
      "_distance_char": 7915,
      "amax": 7916,
      "att": 7917,
      "ans": 7918,
      "a_diag_data": 7919,
      "a_offd_data": 7920,
      "a_diag_i": 7921,
      "ba": 7922,
      "bp": 7923,
      "bray": 7924,
      "bul": 7925,
      "best": 7926,
      "band": 7927,
      "bgr": 7928,
      "bad": 7929,
      "b_cla": 7930,
      "bmult": 7931,
      "bmults": 7932,
      "car": 7933,
      "csi": 7934,
      "cint": 7935,
      "cce": 7936,
      "cstring": 7937,
      "cnorm": 7938,
      "c_div": 7939,
      "city": 7940,
      "dl": 7941,
      "df": 7942,
      "dz": 7943,
      "deta": 7944,
      "d_t": 7945,
      "dge": 7946,
      "d_dim": 7947,
      "dup": 7948,
      "drai": 7949,
      "dcode": 7950,
      "d_ch": 7951,
      "done": 7952,
      "dstatus": 7953,
      "d_e": 7954,
      "dd_to": 7955,
      "d_num": 7956,
      "d_priv": 7957,
      "d_offsets": 7958,
      "daxpy_": 7959,
      "ent": 7960,
      "el_": 7961,
      "edata": 7962,
      "e_dim": 7963,
      "euclidean_distance_double": 7964,
      "fk": 7965,
      "ful": 7966,
      "f_c": 7967,
      "f_array": 7968,
      "frow": 7969,
      "fcode": 7970,
      "ferr": 7971,
      "fail": 7972,
      "frows": 7973,
      "full_": 7974,
      "f_kers": 7975,
      "foot": 7976,
      "gs_": 7977,
      "gff": 7978,
      "gtrange": 7979,
      "gmv": 7980,
      "hs": 7981,
      "h__": 7982,
      "hmac": 7983,
      "height": 7984,
      "iup": 7985,
      "iend": 7986,
      "isin": 7987,
      "itmp": 7988,
      "iread": 7989,
      "ios": 7990,
      "istack": 7991,
      "issuer": 7992,
      "ja": 7993,
      "jl": 7994,
      "jc": 7995,
      "jy": 7996,
      "jen": 7997,
      "just": 7998,
      "kr": 7999,
      "kul": 8000,
      "kstart": 8001,
      "kmark": 8002,
      "kmer": 8003,
      "kdistance": 8004,
      "kwt": 8005,
      "kcst": 8006,
      "lay": 8007,
      "ldata": 8008,
      "lar": 8009,
      "lstr": 8010,
      "lual": 8011,
      "lmap": 8012,
      "lr_": 8013,
      "lpos": 8014,
      "lki": 8015,
      "lextent": 8016,
      "letter": 8017,
      "mi": 8018,
      "mf": 8019,
      "may": 8020,
      "m_i": 8021,
      "mer": 8022,
      "mpe": 8023,
      "mss": 8024,
      "m_g": 8025,
      "mind": 8026,
      "mfa": 8027,
      "mreg": 8028,
      "muzzy": 8029,
      "nv": 8030,
      "nval": 8031,
      "nres": 8032,
      "n_b": 8033,
      "nfo": 8034,
      "n_in": 8035,
      "n_g": 8036,
      "nft": 8037,
      "nread": 8038,
      "ninc": 8039,
      "noi": 8040,
      "ntf": 8041,
      "nleft": 8042,
      "n_ine": 8043,
      "nheaders": 8044,
      "n_result_": 8045,
      "nregs": 8046,
      "nentries": 8047,
      "osc": 8048,
      "op_": 8049,
      "out_": 8050,
      "o_layout_": 8051,
      "pe": 8052,
      "pand": 8053,
      "poly": 8054,
      "pseq": 8055,
      "per_id": 8056,
      "pkp": 8057,
      "pfd": 8058,
      "p_offd_i": 8059,
      "package_power_limit": 8060,
      "qa": 8061,
      "qin": 8062,
      "qlabel": 8063,
      "qmessage": 8064,
      "rx": 8065,
      "rn": 8066,
      "rg": 8067,
      "reta": 8068,
      "rsc": 8069,
      "rsize": 8070,
      "rcp": 8071,
      "rbuf": 8072,
      "rand": 8073,
      "rog": 8074,
      "righ": 8075,
      "rri": 8076,
      "rfc": 8077,
      "rmessage": 8078,
      "rename": 8079,
      "rvarids": 8080,
      "sb": 8081,
      "ss": 8082,
      "sli": 8083,
      "sdd": 8084,
      "sel": 8085,
      "s_i": 8086,
      "ses": 8087,
      "sk_": 8088,
      "s_map": 8089,
      "sax": 8090,
      "snum": 8091,
      "sol_": 8092,
      "supp": 8093,
      "suftab": 8094,
      "smooth": 8095,
      "s_priv": 8096,
      "s_grid": 8097,
      "tm": 8098,
      "tk": 8099,
      "tj": 8100,
      "typ": 8101,
      "tmpr": 8102,
      "tmod": 8103,
      "uf": 8104,
      "uptr": 8105,
      "uid": 8106,
      "u_dim": 8107,
      "usize": 8108,
      "u_array": 8109,
      "uresult": 8110,
      "utf": 8111,
      "udiag": 8112,
      "vv": 8113,
      "vtx": 8114,
      "vaddr": 8115,
      "v_kers": 8116,
      "wn": 8117,
      "wy": 8118,
      "wset": 8119,
      "w_offd_j": 8120,
      "w_diag_j": 8121,
      "w_diag_data": 8122,
      "w_offd_data": 8123,
      "warning": 8124,
      "weights_": 8125,
      "xbuffer": 8126,
      "xname": 8127,
      "yule": 8128,
      "ydot": 8129,
      "z_abs": 8130,
      "##a_t": 8131,
      "##adi": 8132,
      "##as_t": 8133,
      "##aps_": 8134,
      "##a_text": 8135,
      "##aque": 8136,
      "##a_distance_double": 8137,
      "##a_sm": 8138,
      "##ll_": 8139,
      "##lctx": 8140,
      "##ope": 8141,
      "##ontext": 8142,
      "##o_distance_char": 8143,
      "##cv": 8144,
      "##cf": 8145,
      "##cz": 8146,
      "##call": 8147,
      "##cef": 8148,
      "##cdata": 8149,
      "##car": 8150,
      "##comp": 8151,
      "##cut": 8152,
      "##che": 8153,
      "##c_sum": 8154,
      "##cient": 8155,
      "##cheby": 8156,
      "##category": 8157,
      "##coalesce": 8158,
      "##clust": 8159,
      "##cells": 8160,
      "##_ble": 8161,
      "##_bounds": 8162,
      "##_el": 8163,
      "##_ire": 8164,
      "##_ds": 8165,
      "##_fm": 8166,
      "##_xs": 8167,
      "##_lock": 8168,
      "##_ide": 8169,
      "##_s_t": 8170,
      "##_one": 8171,
      "##_values": 8172,
      "##_out_": 8173,
      "##_empty": 8174,
      "##_error": 8175,
      "##_attrs": 8176,
      "##_mgr": 8177,
      "##_fmt": 8178,
      "##_dscal_": 8179,
      "##_extent": 8180,
      "##mln": 8181,
      "##mv_": 8182,
      "##mutex": 8183,
      "##method": 8184,
      "##ua": 8185,
      "##und": 8186,
      "##uation": 8187,
      "##use_": 8188,
      "##using": 8189,
      "##uchar": 8190,
      "##top": 8191,
      "##ths": 8192,
      "##ter_": 8193,
      "##tents": 8194,
      "##tupdate": 8195,
      "##ede": 8196,
      "##ed_tests": 8197,
      "##euclidean_distance_double": 8198,
      "##xnnz": 8199,
      "##nf": 8200,
      "##nz": 8201,
      "##nal": 8202,
      "##ntry": 8203,
      "##nalloc": 8204,
      "##nprintf": 8205,
      "##nelmts": 8206,
      "##nski": 8207,
      "##kw": 8208,
      "##kv_t": 8209,
      "##pt": 8210,
      "##pk": 8211,
      "##pv": 8212,
      "##pon": 8213,
      "##pool": 8214,
      "##p_t": 8215,
      "##prec": 8216,
      "##per_": 8217,
      "##pparams": 8218,
      "##peline": 8219,
      "##ys": 8220,
      "##ynski": 8221,
      "##v_begin": 8222,
      "##ver_id": 8223,
      "##vcomp": 8224,
      "##ron": 8225,
      "##rt_": 8226,
      "##rhs": 8227,
      "##rame": 8228,
      "##rth": 8229,
      "##rty": 8230,
      "##rtab": 8231,
      "##rrit": 8232,
      "##rtrn": 8233,
      "##g_i": 8234,
      "##gd_": 8235,
      "##gge": 8236,
      "##getab": 8237,
      "##g_priority": 8238,
      "##b_len": 8239,
      "##bust": 8240,
      "##berr": 8241,
      "##btab": 8242,
      "##blob": 8243,
      "##ies": 8244,
      "##ilt": 8245,
      "##iate": 8246,
      "##iver": 8247,
      "##izz": 8248,
      "##ists": 8249,
      "##isit": 8250,
      "##ho": 8251,
      "##hz": 8252,
      "##hal": 8253,
      "##hd_": 8254,
      "##hea": 8255,
      "##happ": 8256,
      "##hdr": 8257,
      "##hemv": 8258,
      "##sore": 8259,
      "##spr": 8260,
      "##sne": 8261,
      "##ss_t": 8262,
      "##smap": 8263,
      "##s_par": 8264,
      "##s_inc": 8265,
      "##s_per": 8266,
      "##slabs": 8267,
      "##dat": 8268,
      "##don": 8269,
      "##dation": 8270,
      "##d_ph": 8271,
      "##dpoints": 8272,
      "##whit": 8273,
      "##wise_": 8274,
      "##written": 8275,
      "##j_gi": 8276,
      "##fx": 8277,
      "##ful": 8278,
      "##fin": 8279,
      "##fork": 8280,
      "##flen": 8281,
      "##festr": 8282,
      "##fail_tests": 8283,
      "##fuse_": 8284,
      "##q_m": 8285,
      "##qa_sm": 8286,
      "##zation": 8287,
      "num_d": 8288,
      "numof": 8289,
      "num_string": 8290,
      "num_token": 8291,
      "num_coef": 8292,
      "num_vector": 8293,
      "num_grid": 8294,
      "num_nonzeros": 8295,
      "numcells": 8296,
      "##trclust": 8297,
      "ptrlut": 8298,
      "##lim": 8299,
      "##lit_": 8300,
      "##lize": 8301,
      "##licost": 8302,
      "##gname": 8303,
      "align_size": 8304,
      "##band": 8305,
      "##balance": 8306,
      "##oupw": 8307,
      "##ou_re": 8308,
      "##ousin": 8309,
      "##nd_append": 8310,
      "##ndsmap": 8311,
      "##led_": 8312,
      "##etblob": 8313,
      "##alv": 8314,
      "##al_to": 8315,
      "##al_code": 8316,
      "##red": 8317,
      "##red_": 8318,
      "##rever": 8319,
      "callback": 8320,
      "callbacks": 8321,
      "arity": 8322,
      "##mesh": 8323,
      "##mendsmap": 8324,
      "fla_t": 8325,
      "##ddev": 8326,
      "##idx_info_t": 8327,
      "##ulk_": 8328,
      "##ulated": 8329,
      "inext": 8330,
      "ins_": 8331,
      "infloat": 8332,
      "inuse": 8333,
      "in_addr": 8334,
      "in_stream": 8335,
      "inp_len": 8336,
      "add_p": 8337,
      "add_ordinal": 8338,
      "##nto": 8339,
      "##ntop": 8340,
      "##nt_merge": 8341,
      "##ntime": 8342,
      "idx_info": 8343,
      "idx_list": 8344,
      "idxstride_y": 8345,
      "##ex_hull_tests": 8346,
      "get_object": 8347,
      "getinser": 8348,
      "##bound_multi_pw_aff": 8349,
      "##bounded_tests": 8350,
      "##ommendsmap": 8351,
      "##oreach": 8352,
      "storeh": 8353,
      "top_": 8354,
      "tot_len": 8355,
      "##ctg": 8356,
      "##ctual": 8357,
      "##ctio": 8358,
      "##ctang": 8359,
      "##id_read_from_str": 8360,
      "##iders": 8361,
      "##idle_connection": 8362,
      "##idths": 8363,
      "##orde": 8364,
      "##orts": 8365,
      "##orms": 8366,
      "##ories": 8367,
      "##mp_get": 8368,
      "##etained": 8369,
      "##eta_request_": 8370,
      "##etactual": 8371,
      "##at_ptr": 8372,
      "##at_to": 8373,
      "##at_ukrs": 8374,
      "##attributes": 8375,
      "indep": 8376,
      "##onv": 8377,
      "nshar": 8378,
      "nslabs": 8379,
      "##l_array": 8380,
      "##l_dim": 8381,
      "##l_is": 8382,
      "##l_event": 8383,
      "meta_re": 8384,
      "##last_": 8385,
      "##mm_": 8386,
      "tests": 8387,
      "##elow": 8388,
      "##ello": 8389,
      "lcore": 8390,
      "arg_names": 8391,
      "##_pid": 8392,
      "##_png": 8393,
      "##_pad_": 8394,
      "##_p_offd": 8395,
      "##_put_": 8396,
      "##irect_distance": 8397,
      "##ar_m": 8398,
      "##arie": 8399,
      "##arby": 8400,
      "##argname": 8401,
      "cos": 8402,
      "coins": 8403,
      "coincid": 8404,
      "coords": 8405,
      "codon": 8406,
      "##od_addr": 8407,
      "strong": 8408,
      "str_flag": 8409,
      "exact": 8410,
      "##t_s": 8411,
      "##t_cache": 8412,
      "##t_objects": 8413,
      "##t_io": 8414,
      "##t_files": 8415,
      "starting": 8416,
      "deri": 8417,
      "debug": 8418,
      "index_last": 8419,
      "##sist": 8420,
      "##siter": 8421,
      "broadcast": 8422,
      "subset": 8423,
      "subtree": 8424,
      "subset_tests": 8425,
      "submesh": 8426,
      "pred": 8427,
      "predict": 8428,
      "preflen": 8429,
      "dig": 8430,
      "dice": 8431,
      "diam": 8432,
      "difr": 8433,
      "construct": 8434,
      "conf_value": 8435,
      "end_byte": 8436,
      "##reshs": 8437,
      "##_ix_": 8438,
      "##_iseq": 8439,
      "##_isend": 8440,
      "##_ikv_t": 8441,
      "##sion_neg": 8442,
      "decof": 8443,
      "deconv": 8444,
      "fmap": 8445,
      "convex_hull_tests": 8446,
      "##erst": 8447,
      "##erstream": 8448,
      "##erver": 8449,
      "##eration": 8450,
      "##erypos": 8451,
      "##erred_": 8452,
      "##x_si": 8453,
      "__pyx_c_sum": 8454,
      "__pyx_fuse_": 8455,
      "cmp_func": 8456,
      "##stot": 8457,
      "##stable": 8458,
      "##stddev": 8459,
      "##d_r": 8460,
[...]
